<pad>	0
<unk>	0
[CLS]	0
[SEP]	0
[MASK]	0
(	0
)	0
\"	0
-	0
.	0
–	0
£	0
€	0
▁t	-0
he	-1
▁a	-2
in	-3
▁the	-4
er	-5
on	-6
▁s	-7
re	-8
▁w	-9
▁o	-10
nd	-11
ed	-12
at	-13
is	-14
or	-15
en	-16
it	-17
▁f	-18
▁c	-19
▁b	-20
an	-21
ar	-22
▁of	-23
es	-24
▁in	-25
al	-26
ing	-27
▁and	-28
as	-29
▁p	-30
ou	-31
▁m	-32
▁h	-33
▁to	-34
ic	-35
▁d	-36
le	-37
ion	-38
ro	-39
▁T	-40
il	-41
▁S	-42
ent	-43
▁l	-44
▁n	-45
▁A	-46
▁th	-47
el	-48
st	-49
▁C	-50
▁he	-51
om	-52
▁re	-53
▁1	-54
▁,	-55
ad	-56
am	-57
ac	-58
▁was	-59
▁e	-60
ol	-61
▁g	-62
▁M	-63
et	-64
id	-65
▁on	-66
ly	-67
ut	-68
ur	-69
im	-70
ec	-71
ot	-72
▁for	-73
ig	-74
▁B	-75
ow	-76
iv	-77
▁I	-78
ir	-79
▁The	-80
▁P	-81
us	-82
ay	-83
▁H	-84
▁as	-85
▁st	-86
▁is	-87
▁2	-88
ith	-89
ter	-90
ation	-91
▁be	-92
▁with	-93
ver	-94
ch	-95
un	-96
em	-97
▁R	-98
▁D	-99
▁wh	-100
▁19	-101
and	-102
▁that	-103
▁L	-104
▁F	-105
ce	-106
▁al	-107
▁'	-108
▁at	-109
▁his	-110
▁i	-111
▁it	-112
ul	-113
▁an	-114
ers	-115
▁G	-116
ct	-117
▁N	-118
th	-119
▁by	-120
▁W	-121
her	-122
ag	-123
os	-124
▁20	-125
rom	-126
av	-127
▁r	-128
ain	-129
▁y	-130
ist	-131
ld	-132
▁J	-133
um	-134
▁con	-135
▁E	-136
ri	-137
▁from	-138
est	-139
od	-140
igh	-141
op	-142
ill	-143
ap	-144
▁her	-145
ak	-146
▁O	-147
▁v	-148
▁com	-149
oc	-150
ab	-151
ore	-152
art	-153
▁pro	-154
ew	-155
▁k	-156
▁In	-157
up	-158
res	-159
ard	-160
all	-161
ate	-162
ity	-163
ber	-164
ant	-165
if	-166
▁"	-167
▁de	-168
ies	-169
▁se	-170
ud	-171
▁or	-172
se	-173
our	-174
gh	-175
▁K	-176
ort	-177
qu	-178
ess	-179
▁she	-180
▁ch	-181
▁U	-182
ip	-183
ere	-184
▁had	-185
ight	-186
▁sh	-187
ich	-188
▁le	-189
ear	-190
rou	-191
▁are	-192
ian	-193
▁pl	-194
ack	-195
▁ex	-196
ov	-197
ated	-198
▁were	-199
ia	-200
ell	-201
ive	-202
ub	-203
ge	-204
ust	-205
ong	-206
ould	-207
nt	-208
▁St	-209
ast	-210
▁you	-211
ok	-212
ect	-213
ep	-214
ave	-215
ame	-216
▁but	-217
▁j	-218
ary	-219
red	-220
▁201	-221
▁tr	-222
▁not	-223
▁sp	-224
▁''	-225
ment	-226
ial	-227
ine	-228
▁whe	-229
▁`	-230
▁``	-231
▁Ch	-232
ost	-233
▁200	-234
out	-235
ord	-236
▁V	-237
uc	-238
▁which	-239
▁me	-240
▁|	-241
▁He	-242
ish	-243
ie	-244
▁un	-245
og	-246
▁cl	-247
ide	-248
ure	-249
▁int	-250
ome	-251
ther	-252
ous	-253
ra	-254
ork	-255
pp	-256
ical	-257
hed	-258
▁him	-259
▁my	-260
mer	-261
so	-262
ue	-263
own	-264
▁ab	-265
▁comp	-266
▁have	-267
ions	-268
irst	-269
▁out	-270
ff	-271
▁us	-272
▁ar	-273
ke	-274
▁one	-275
age	-276
ry	-277
ice	-278
▁up	-279
ass	-280
ire	-281
ign	-282
▁this	-283
▁all	-284
cl	-285
end	-286
ond	-287
fter	-288
▁go	-289
▁has	-290
iz	-291
▁who	-292
▁||	-293
ound	-294
ace	-295
▁first	-296
▁also	-297
▁their	-298
▁do	-299
und	-300
ans	-301
ime	-302
▁they	-303
▁It	-304
▁ag	-305
per	-306
are	-307
one	-308
▁kn	-309
▁tw	-310
ember	-311
ind	-312
▁cont	-313
▁we	-314
▁18	-315
▁ro	-316
erv	-317
ang	-318
ally	-319
▁Un	-320
act	-321
▁ad	-322
ater	-323
ach	-324
rit	-325
ric	-326
▁been	-327
▁its	-328
ook	-329
ount	-330
ough	-331
▁part	-332
▁3	-333
▁man	-334
▁sa	-335
▁over	-336
pl	-337
▁into	-338
▁so	-339
▁ne	-340
ree	-341
wn	-342
man	-343
00	-344
▁Th	-345
▁off	-346
orn	-347
▁en	-348
ib	-349
▁ac	-350
ru	-351
ence	-352
▁bec	-353
ted	-354
▁res	-355
ile	-356
▁app	-357
ition	-358
ark	-359
▁would	-360
ade	-361
▁te	-362
ory	-363
▁when	-364
▁sc	-365
old	-366
▁other	-367
ts	-368
▁year	-369
port	-370
ens	-371
▁two	-372
ations	-373
amp	-374
▁Y	-375
ll	-376
land	-377
▁play	-378
lect	-379
ational	-380
ake	-381
▁per	-382
ance	-383
ress	-384
▁ev	-385
oll	-386
▁after	-387
ng	-388
ely	-389
▁im	-390
ild	-391
urn	-392
way	-393
iss	-394
ail	-395
clud	-396
ool	-397
oin	-398
ug	-399
ult	-400
uch	-401
ite	-402
▁Ar	-403
▁time	-404
▁rec	-405
ick	-406
▁199	-407
ath	-408
▁work	-409
ood	-410
te	-411
we	-412
ward	-413
▁there	-414
ates	-415
ied	-416
tern	-417
able	-418
orm	-419
ose	-420
rough	-421
ike	-422
anc	-423
uring	-424
oy	-425
ited	-426
ubl	-427
pt	-428
▁them	-429
▁dis	-430
▁includ	-431
▁about	-432
ings	-433
▁des	-434
▁back	-435
▁more	-436
▁then	-437
ors	-438
round	-439
▁again	-440
ased	-441
ents	-442
▁und	-443
ons	-444
▁4	-445
▁can	-446
▁comm	-447
ne	-448
19	-449
ase	-450
▁pr	-451
ss	-452
ft	-453
aw	-454
ve	-455
▁fl	-456
▁Mar	-457
very	-458
▁gr	-459
ob	-460
▁new	-461
ivers	-462
▁said	-463
▁fe	-464
fer	-465
▁co	-466
▁pre	-467
▁qu	-468
▁bl	-469
▁could	-470
les	-471
▁did	-472
▁bet	-473
chool	-474
▁under	-475
ont	-476
▁Al	-477
▁New	-478
fore	-479
▁some	-480
▁att	-481
▁only	-482
hip	-483
ious	-484
▁if	-485
aus	-486
▁sec	-487
▁act	-488
gan	-489
hn	-490
▁Le	-491
vel	-492
air	-493
ered	-494
▁no	-495
ank	-496
oth	-497
▁through	-498
▁serv	-499
▁Com	-500
▁loc	-501
outh	-502
▁where	-503
ily	-504
▁5	-505
io	-506
meric	-507
orld	-508
▁198	-509
inal	-510
▁Re	-511
▁like	-512
▁any	-513
▁pe	-514
▁bu	-515
ren	-516
pen	-517
▁what	-518
led	-519
ished	-520
reat	-521
pe	-522
ince	-523
au	-524
ock	-525
▁sm	-526
▁made	-527
ink	-528
ction	-529
ah	-530
▁before	-531
ilm	-532
▁than	-533
ason	-534
▁cons	-535
elf	-536
▁rem	-537
ton	-538
enc	-539
tle	-540
ween	-541
▁Americ	-542
ouse	-543
▁years	-544
▁mov	-545
rib	-546
▁reg	-547
▁br	-548
▁ear	-549
ting	-550
cess	-551
▁On	-552
▁?	-553
▁just	-554
ual	-555
az	-556
▁most	-557
orth	-558
▁ret	-559
▁ind	-560
other	-561
▁found	-562
ix	-563
pr	-564
ollow	-565
▁sup	-566
▁hand	-567
▁197	-568
▁dec	-569
▁ass	-570
ral	-571
oun	-572
ife	-573
ram	-574
form	-575
▁between	-576
▁6	-577
ident	-578
▁am	-579
▁inter	-580
du	-581
olog	-582
iversity	-583
▁down	-584
▁col	-585
▁stud	-586
ict	-587
▁fam	-588
hes	-589
ating	-590
▁well	-591
ener	-592
ning	-593
▁look	-594
ik	-595
▁rel	-596
▁publ	-597
ather	-598
▁Sh	-599
▁form	-600
ics	-601
▁during	-602
▁cent	-603
iel	-604
▁three	-605
ped	-606
ision	-607
▁end	-608
ular	-609
▁sub	-610
eth	-611
▁team	-612
▁will	-613
▁call	-614
▁head	-615
▁This	-616
ier	-617
oot	-618
▁car	-619
ement	-620
ople	-621
0,	-622
▁used	-623
▁Jo	-624
▁second	-625
▁film	-626
▁pol	-627
duc	-628
▁sl	-629
▁196	-630
▁being	-631
▁sy	-632
als	-633
▁ent	-634
ale	-635
▁how	-636
any	-637
hen	-638
▁rele	-639
▁later	-640
ause	-641
▁against	-642
son	-643
▁follow	-644
iet	-645
ph	-646
▁spec	-647
▁pres	-648
vern	-649
▁An	-650
▁As	-651
▁such	-652
▁She	-653
ative	-654
▁dist	-655
▁now	-656
aj	-657
ames	-658
ays	-659
ten	-660
▁bro	-661
▁get	-662
▁ed	-663
ever	-664
oss	-665
roup	-666
ters	-667
▁while	-668
ty	-669
ived	-670
▁num	-671
til	-672
▁Ind	-673
▁long	-674
▁Z	-675
▁set	-676
ities	-677
▁University	-678
ower	-679
ash	-680
ann	-681
▁sur	-682
alk	-683
▁7	-684
▁around	-685
▁Fr	-686
ared	-687
▁ph	-688
irect	-689
▁know	-690
▁want	-691
▁though	-692
ject	-693
row	-694
▁inv	-695
ise	-696
▁United	-697
▁mus	-698
ept	-699
▁Pro	-700
erm	-701
▁known	-702
▁own	-703
▁inc	-704
ober	-705
der	-706
▁def	-707
▁em	-708
ific	-709
eb	-710
▁Col	-711
aking	-712
ek	-713
vers	-714
ful	-715
emb	-716
▁people	-717
▁school	-718
▁American	-719
▁elect	-720
▁ser	-721
▁until	-722
▁pop	-723
cc	-724
ull	-725
▁gu	-726
▁mar	-727
▁Sc	-728
▁lar	-729
▁start	-730
▁open	-731
▁194	-732
ball	-733
ury	-734
ines	-735
ley	-736
▁became	-737
tain	-738
▁prov	-739
1,	-740
iver	-741
5,	-742
▁fin	-743
▁four	-744
▁Sp	-745
▁acc	-746
▁both	-747
▁trans	-748
ried	-749
▁inst	-750
rap	-751
sh	-752
▁even	-753
▁many	-754
▁8	-755
▁17	-756
velop	-757
▁Cl	-758
▁char	-759
4,	-760
▁season	-761
▁exp	-762
iam	-763
ina	-764
▁may	-765
▁dr	-766
ins	-767
▁At	-768
its	-769
ross	-770
ounc	-771
ield	-772
ern	-773
2,	-774
ures	-775
▁Eng	-776
▁show	-777
▁add	-778
▁lead	-779
▁art	-780
ys	-781
une	-782
ized	-783
▁195	-784
▁min	-785
6,	-786
ired	-787
enn	-788
▁record	-789
",	-790
iew	-791
▁sing	-792
xt	-793
self	-794
▁bel	-795
ional	-796
▁9	-797
▁every	-798
▁count	-799
▁ey	-800
▁high	-801
atch	-802
▁fr	-803
bum	-804
▁Br	-805
ually	-806
▁way	-807
▁right	-808
▁including	-809
▁John	-810
3,	-811
▁cap	-812
ister	-813
ists	-814
ove	-815
uck	-816
▁your	-817
▁sign	-818
▁War	-819
rict	-820
▁mon	-821
co	-822
▁family	-823
20	-824
▁De	-825
▁run	-826
▁ins	-827
▁rep	-828
▁name	-829
▁because	-830
▁dif	-831
▁still	-832
▁Jan	-833
▁som	-834
▁same	-835
ange	-836
▁May	-837
urch	-838
▁Comm	-839
osed	-840
▁writ	-841
▁cre	-842
ven	-843
ner	-844
stem	-845
urned	-846
▁took	-847
ved	-848
▁For	-849
8,	-850
ey	-851
▁group	-852
amed	-853
erson	-854
imes	-855
▁direct	-856
get	-857
▁National	-858
▁main	-859
▁Q	-860
▁Tr	-861
▁str	-862
▁album	-863
ural	-864
uss	-865
ism	-866
▁med	-867
▁ob	-868
7,	-869
arm	-870
▁lit	-871
▁Is	-872
▁sever	-873
▁Con	-874
▁cur	-875
ague	-876
▁After	-877
ives	-878
augh	-879
▁build	-880
iving	-881
▁rece	-882
▁est	-883
ple	-884
▁States	-885
arl	-886
▁arm	-887
erman	-888
ax	-889
▁number	-890
▁develop	-891
ained	-892
▁World	-893
000	-894
▁mod	-895
els	-896
▁Pr	-897
▁see	-898
ird	-899
▁since	-900
▁oper	-901
oman	-902
▁Ph	-903
▁called	-904
let	-905
9,	-906
inc	-907
vernment	-908
▁gl	-909
ible	-910
▁Bl	-911
ex	-912
▁air	-913
▁hel	-914
uth	-915
▁orig	-916
ger	-917
ene	-918
ised	-919
▁near	-920
▁song	-921
▁Ju	-922
to	-923
▁last	-924
ution	-925
uro	-926
ars	-927
ody	-928
▁these	-929
▁Aust	-930
uary	-931
by	-932
▁need	-933
▁place	-934
▁played	-935
ret	-936
▁small	-937
ute	-938
▁each	-939
▁193	-940
▁Brit	-941
aving	-942
▁contin	-943
▁left	-944
▁Ad	-945
▁Nov	-946
▁ext	-947
ron	-948
▁area	-949
▁ann	-950
▁series	-951
▁house	-952
▁released	-953
▁make	-954
▁gener	-955
ane	-956
ugust	-957
▁10	-958
▁offic	-959
▁poin	-960
▁pass	-961
eptember	-962
ured	-963
18	-964
▁child	-965
▁Wh	-966
▁Count	-967
▁win	-968
▁Pl	-969
▁hist	-970
▁York	-971
▁much	-972
▁16	-973
the	-974
▁Dec	-975
ient	-976
▁bre	-977
▁several	-978
▁began	-979
▁dep	-980
▁Or	-981
ctober	-982
ck	-983
ai	-984
▁care	-985
▁use	-986
ided	-987
ants	-988
▁old	-989
▁March	-990
▁September	-991
▁prog	-992
▁life	-993
▁design	-994
ched	-995
ues	-996
ains	-997
▁August	-998
ling	-999
▁bo	-1000
▁15	-1001
▁city	-1002
▁cr	-1003
▁eyes	-1004
▁along	-1005
▁day	-1006
▁resp	-1007
ulation	-1008
▁const	-1009
▁held	-1010
▁var	-1011
▁home	-1012
▁feat	-1013
▁system	-1014
▁October	-1015
▁che	-1016
▁should	-1017
aced	-1018
▁world	-1019
ially	-1020
ady	-1021
ued	-1022
ital	-1023
▁think	-1024
ble	-1025
▁sim	-1026
fess	-1027
▁South	-1028
▁away	-1029
▁January	-1030
▁Be	-1031
▁won	-1032
rist	-1033
vent	-1034
pril	-1035
ission	-1036
▁Can	-1037
ilt	-1038
▁met	-1039
▁music	-1040
▁&	-1041
ged	-1042
omen	-1043
oci	-1044
ility	-1045
▁former	-1046
▁game	-1047
lish	-1048
▁town	-1049
▁book	-1050
▁land	-1051
▁sk	-1052
ajor	-1053
por	-1054
ior	-1055
▁School	-1056
▁June	-1057
▁suc	-1058
▁early	-1059
▁public	-1060
▁rest	-1061
rent	-1062
ically	-1063
fl	-1064
▁going	-1065
▁German	-1066
▁el	-1067
ternational	-1068
▁Cent	-1069
▁state	-1070
▁take	-1071
▁very	-1072
ying	-1073
▁April	-1074
▁another	-1075
▁July	-1076
▁Gr	-1077
hern	-1078
▁differ	-1079
for	-1080
ung	-1081
▁eff	-1082
▁produ	-1083
ruct	-1084
▁imp	-1085
▁prom	-1086
ium	-1087
▁Ge	-1088
▁His	-1089
riend	-1090
▁How	-1091
ets	-1092
▁Mus	-1093
▁November	-1094
ology	-1095
ages	-1096
duced	-1097
ces	-1098
▁those	-1099
▁never	-1100
▁cour	-1101
▁Se	-1102
▁side	-1103
▁la	-1104
▁sw	-1105
▁organ	-1106
▁let	-1107
rop	-1108
▁join	-1109
▁December	-1110
ices	-1111
▁foot	-1112
▁came	-1113
▁—	-1114
yl	-1115
ately	-1116
lege	-1117
▁bus	-1118
icip	-1119
▁They	-1120
ony	-1121
▁real	-1122
▁commun	-1123
▁following	-1124
arch	-1125
ales	-1126
born	-1127
▁All	-1128
▁occ	-1129
ness	-1130
▁stand	-1131
▁12	-1132
gin	-1133
resent	-1134
▁Euro	-1135
▁few	-1136
▁Car	-1137
ments	-1138
ended	-1139
▁good	-1140
▁comple	-1141
uff	-1142
▁support	-1143
rew	-1144
▁war	-1145
ently	-1146
▁Min	-1147
ience	-1148
ott	-1149
reen	-1150
▁North	-1151
eter	-1152
embers	-1153
▁government	-1154
wards	-1155
iness	-1156
ampions	-1157
▁beh	-1158
aining	-1159
▁band	-1160
▁mat	-1161
ourn	-1162
▁went	-1163
ruary	-1164
ator	-1165
▁Ass	-1166
ebruary	-1167
▁program	-1168
lev	-1169
▁County	-1170
ection	-1171
▁list	-1172
▁Ed	-1173
▁British	-1174
▁Will	-1175
▁vill	-1176
▁Am	-1177
ored	-1178
▁Austral	-1179
oor	-1180
ering	-1181
ae	-1182
cept	-1183
▁polit	-1184
eng	-1185
▁There	-1186
elt	-1187
▁kill	-1188
▁class	-1189
▁ref	-1190
akes	-1191
▁pos	-1192
▁room	-1193
▁eng	-1194
ract	-1195
▁192	-1196
que	-1197
▁tit	-1198
▁February	-1199
ison	-1200
ats	-1201
▁located	-1202
mp	-1203
▁face	-1204
ster	-1205
▁line	-1206
▁leg	-1207
▁Bar	-1208
ides	-1209
▁here	-1210
▁appear	-1211
▁person	-1212
▁too	-1213
med	-1214
▁member	-1215
ival	-1216
▁City	-1217
▁compet	-1218
▁named	-1219
▁Gu	-1220
▁Co	-1221
ograp	-1222
▁conc	-1223
view	-1224
br	-1225
be	-1226
▁say	-1227
ected	-1228
▁water	-1229
my	-1230
gest	-1231
▁father	-1232
▁top	-1233
echn	-1234
aster	-1235
min	-1236
▁company	-1237
ords	-1238
app	-1239
ert	-1240
▁major	-1241
▁local	-1242
▁Pol	-1243
▁men	-1244
▁desc	-1245
irl	-1246
▁Bro	-1247
day	-1248
ards	-1249
aces	-1250
▁find	-1251
▁club	-1252
▁mil	-1253
The	-1254
▁thought	-1255
▁next	-1256
rol	-1257
alf	-1258
▁det	-1259
though	-1260
att	-1261
iven	-1262
▁Man	-1263
▁US	-1264
▁hum	-1265
ham	-1266
▁II	-1267
▁death	-1268
▁large	-1269
▁age	-1270
▁Rep	-1271
idd	-1272
ined	-1273
▁event	-1274
con	-1275
▁station	-1276
▁six	-1277
▁Europe	-1278
▁single	-1279
▁success	-1280
▁final	-1281
illion	-1282
▁members	-1283
▁little	-1284
▁mark	-1285
▁sit	-1286
▁ask	-1287
▁ty	-1288
▁appro	-1289
▁population	-1290
iety	-1291
▁State	-1292
reet	-1293
▁within	-1294
side	-1295
▁charac	-1296
▁prot	-1297
▁five	-1298
▁body	-1299
ething	-1300
▁term	-1301
▁King	-1302
ians	-1303
▁dem	-1304
▁Har	-1305
▁estab	-1306
hy	-1307
me	-1308
▁$	-1309
▁short	-1310
▁got	-1311
▁moved	-1312
thing	-1313
▁best	-1314
▁Reg	-1315
▁served	-1316
▁tell	-1317
▁11	-1318
▁built	-1319
ask	-1320
▁started	-1321
▁born	-1322
▁allow	-1323
▁power	-1324
▁law	-1325
▁our	-1326
▁consid	-1327
▁report	-1328
▁However	-1329
ief	-1330
ode	-1331
▁14	-1332
com	-1333
▁191	-1334
ublic	-1335
atic	-1336
gy	-1337
▁based	-1338
▁received	-1339
alif	-1340
aim	-1341
▁night	-1342
▁13	-1343
ampionship	-1344
▁Canad	-1345
▁something	-1346
che	-1347
▁soc	-1348
▁without	-1349
▁help	-1350
▁light	-1351
▁put	-1352
sp	-1353
▁building	-1354
▁different	-1355
ille	-1356
vious	-1357
ize	-1358
yn	-1359
oice	-1360
▁friend	-1361
▁repl	-1362
▁ke	-1363
▁cor	-1364
▁expl	-1365
ached	-1366
▁vis	-1367
ature	-1368
▁Soc	-1369
rench	-1370
▁Af	-1371
▁Christ	-1372
▁feel	-1373
alth	-1374
▁av	-1375
ries	-1376
▁Go	-1377
▁spe	-1378
▁north	-1379
▁Geor	-1380
▁camp	-1381
▁Fl	-1382
▁fact	-1383
▁requ	-1384
▁profess	-1385
▁West	-1386
▁present	-1387
200	-1388
▁And	-1389
ush	-1390
ech	-1391
▁arr	-1392
▁pain	-1393
▁poss	-1394
ording	-1395
▁fore	-1396
ondon	-1397
▁League	-1398
idge	-1399
ense	-1400
▁Ex	-1401
umb	-1402
gr	-1403
▁son	-1404
▁manag	-1405
itions	-1406
▁vers	-1407
ively	-1408
aul	-1409
▁due	-1410
▁adv	-1411
▁Her	-1412
▁El	-1413
▁es	-1414
▁Ro	-1415
▁hold	-1416
▁door	-1417
ata	-1418
apan	-1419
▁century	-1420
▁Mc	-1421
aff	-1422
▁published	-1423
ze	-1424
right	-1425
▁par	-1426
▁died	-1427
ivision	-1428
▁looked	-1429
▁Par	-1430
ves	-1431
▁come	-1432
▁Dist	-1433
▁William	-1434
bo	-1435
ese	-1436
▁pat	-1437
ips	-1438
▁national	-1439
▁children	-1440
uthor	-1441
stit	-1442
▁opp	-1443
▁stop	-1444
▁third	-1445
less	-1446
▁cle	-1447
omin	-1448
▁young	-1449
▁current	-1450
ways	-1451
▁does	-1452
▁Ab	-1453
▁village	-1454
▁south	-1455
▁deb	-1456
ches	-1457
iod	-1458
▁X	-1459
▁once	-1460
▁exper	-1461
▁During	-1462
▁football	-1463
ald	-1464
ency	-1465
▁Sw	-1466
▁walk	-1467
▁ep	-1468
▁English	-1469
af	-1470
▁London	-1471
▁week	-1472
▁del	-1473
▁post	-1474
▁himself	-1475
sc	-1476
▁mag	-1477
▁describ	-1478
estern	-1479
artment	-1480
ization	-1481
ality	-1482
▁led	-1483
▁mom	-1484
urg	-1485
angu	-1486
▁species	-1487
▁Part	-1488
ences	-1489
ream	-1490
▁Te	-1491
▁Japan	-1492
▁month	-1493
ana	-1494
ention	-1495
▁Comp	-1496
▁represent	-1497
▁cover	-1498
ones	-1499
ford	-1500
▁front	-1501
attle	-1502
▁km	-1503
▁turn	-1504
▁French	-1505
▁women	-1506
▁include	-1507
ably	-1508
▁hard	-1509
work	-1510
▁having	-1511
▁included	-1512
▁disc	-1513
eder	-1514
▁saw	-1515
ouncil	-1516
aken	-1517
▁attack	-1518
▁Sy	-1519
▁behind	-1520
ape	-1521
ring	-1522
itary	-1523
▁often	-1524
▁190	-1525
▁conf	-1526
▁across	-1527
ead	-1528
▁incre	-1529
▁Pres	-1530
▁toget	-1531
ows	-1532
▁seem	-1533
▁together	-1534
▁iss	-1535
▁great	-1536
oon	-1537
ney	-1538
adem	-1539
▁business	-1540
▁equ	-1541
▁Sec	-1542
ified	-1543
ps	-1544
▁perform	-1545
▁wanted	-1546
raft	-1547
uk	-1548
▁import	-1549
▁order	-1550
▁late	-1551
▁sold	-1552
na	-1553
▁black	-1554
▁sound	-1555
▁level	-1556
ery	-1557
ara	-1558
most	-1559
▁mother	-1560
▁Air	-1561
▁Hist	-1562
▁High	-1563
▁2010	-1564
▁knew	-1565
raw	-1566
▁Dav	-1567
▁Russ	-1568
▁half	-1569
▁turned	-1570
▁Pe	-1571
▁;	-1572
ino	-1573
▁hands	-1574
osp	-1575
▁period	-1576
▁announc	-1577
▁College	-1578
line	-1579
▁given	-1580
▁million	-1581
urs	-1582
▁felt	-1583
▁addition	-1584
▁port	-1585
▁Bo	-1586
▁sol	-1587
▁project	-1588
▁Park	-1589
mit	-1590
par	-1591
▁among	-1592
▁District	-1593
▁appe	-1594
▁Med	-1595
▁service	-1596
▁chang	-1597
▁keep	-1598
avy	-1599
ced	-1600
▁po	-1601
ument	-1602
▁Afric	-1603
▁House	-1604
▁trad	-1605
▁return	-1606
▁bar	-1607
▁original	-1608
▁aff	-1609
▁collect	-1610
▁full	-1611
of	-1612
ither	-1613
▁country	-1614
arent	-1615
▁val	-1616
▁tot	-1617
▁fre	-1618
▁non	-1619
▁become	-1620
▁track	-1621
ler	-1622
10	-1623
▁ever	-1624
▁brother	-1625
▁career	-1626
▁days	-1627
▁crit	-1628
ration	-1629
▁educ	-1630
ington	-1631
▁La	-1632
▁times	-1633
▁opened	-1634
▁sent	-1635
▁Cor	-1636
▁189	-1637
▁belie	-1638
rick	-1639
ases	-1640
▁rad	-1641
int	-1642
ories	-1643
ned	-1644
▁By	-1645
▁told	-1646
▁history	-1647
ris	-1648
▁field	-1649
▁Phil	-1650
▁wa	-1651
▁No	-1652
▁invol	-1653
ges	-1654
▁making	-1655
▁tem	-1656
▁character	-1657
▁wind	-1658
▁Res	-1659
lished	-1660
▁Ang	-1661
▁fun	-1662
ee	-1663
▁Sup	-1664
▁sil	-1665
▁must	-1666
ummer	-1667
▁girl	-1668
udd	-1669
irc	-1670
▁River	-1671
rie	-1672
▁author	-1673
▁red	-1674
ribut	-1675
ances	-1676
▁gave	-1677
err	-1678
▁z	-1679
▁1,	-1680
▁Me	-1681
▁tri	-1682
▁When	-1683
▁International	-1684
▁lo	-1685
ilar	-1686
▁stat	-1687
adu	-1688
▁Dr	-1689
▁fur	-1690
▁worked	-1691
▁Art	-1692
▁ra	-1693
▁previous	-1694
▁2011	-1695
▁might	-1696
ours	-1697
▁fac	-1698
ruction	-1699
hel	-1700
▁2006	-1701
ploy	-1702
iting	-1703
▁25	-1704
▁2008	-1705
▁Ital	-1706
levision	-1707
▁Ne	-1708
▁effect	-1709
▁lost	-1710
▁meet	-1711
▁title	-1712
reg	-1713
▁using	-1714
lex	-1715
▁round	-1716
▁talk	-1717
▁player	-1718
▁games	-1719
bs	-1720
▁techn	-1721
▁Rec	-1722
ote	-1723
▁seen	-1724
used	-1725
lin	-1726
▁Gl	-1727
rest	-1728
▁ground	-1729
▁returned	-1730
▁San	-1731
▁Dep	-1732
ots	-1733
▁point	-1734
cent	-1735
ope	-1736
rug	-1737
▁sn	-1738
17	-1739
conom	-1740
ole	-1741
ertain	-1742
yle	-1743
eneral	-1744
iber	-1745
▁enough	-1746
▁One	-1747
▁step	-1748
▁special	-1749
▁plan	-1750
▁star	-1751
▁role	-1752
ander	-1753
▁arch	-1754
▁continued	-1755
▁0	-1756
▁married	-1757
▁En	-1758
oyal	-1759
formation	-1760
▁ste	-1761
▁common	-1762
▁eas	-1763
▁however	-1764
ociation	-1765
▁sat	-1766
▁process	-1767
▁fem	-1768
▁squ	-1769
ateg	-1770
▁award	-1771
▁align	-1772
▁2009	-1773
▁control	-1774
▁result	-1775
▁voice	-1776
▁district	-1777
alt	-1778
▁ide	-1779
atter	-1780
ecut	-1781
▁established	-1782
▁2012	-1783
▁claim	-1784
▁2007	-1785
▁interest	-1786
aughter	-1787
▁road	-1788
ference	-1789
▁Acc	-1790
▁origin	-1791
isc	-1792
▁prop	-1793
▁activ	-1794
iding	-1795
▁fire	-1796
▁various	-1797
▁Ser	-1798
▁tre	-1799
▁fall	-1800
▁rese	-1801
▁Mich	-1802
▁Ac	-1803
▁position	-1804
epend	-1805
▁less	-1806
▁England	-1807
▁dark	-1808
▁init	-1809
▁low	-1810
abor	-1811
▁community	-1812
▁past	-1813
▁vol	-1814
▁188	-1815
▁announced	-1816
▁total	-1817
ky	-1818
▁Sch	-1819
▁general	-1820
▁story	-1821
▁East	-1822
▁Ir	-1823
▁Indian	-1824
▁Championship	-1825
▁others	-1826
▁langu	-1827
▁close	-1828
de	-1829
▁Char	-1830
ipp	-1831
▁30	-1832
▁woman	-1833
▁grow	-1834
▁:	-1835
ogn	-1836
▁far	-1837
ivil	-1838
here	-1839
▁gen	-1840
itor	-1841
▁students	-1842
ica	-1843
ising	-1844
ament	-1845
aut	-1846
▁histor	-1847
aper	-1848
ael	-1849
ius	-1850
▁press	-1851
iron	-1852
▁President	-1853
▁partic	-1854
▁cult	-1855
▁appoin	-1856
▁conn	-1857
eck	-1858
▁joined	-1859
▁We	-1860
off	-1861
rote	-1862
▁defe	-1863
▁almost	-1864
cast	-1865
▁Cup	-1866
ox	-1867
bed	-1868
▁rock	-1869
▁read	-1870
▁lim	-1871
▁created	-1872
▁attem	-1873
▁pract	-1874
▁human	-1875
orthern	-1876
ivid	-1877
▁sure	-1878
▁why	-1879
▁hig	-1880
▁2013	-1881
▁version	-1882
lands	-1883
▁2014	-1884
▁clos	-1885
eum	-1886
199	-1887
▁epis	-1888
▁development	-1889
▁produced	-1890
ened	-1891
oney	-1892
▁Per	-1893
ination	-1894
uit	-1895
▁dest	-1896
stand	-1897
▁mean	-1898
▁infl	-1899
15	-1900
▁dam	-1901
▁host	-1902
▁written	-1903
acy	-1904
▁able	-1905
▁bed	-1906
▁case	-1907
▁Church	-1908
▁mer	-1909
▁white	-1910
ops	-1911
go	-1912
forman	-1913
▁pri	-1914
▁appeared	-1915
ma	-1916
▁love	-1917
▁wall	-1918
▁Act	-1919
amb	-1920
▁taken	-1921
▁These	-1922
▁working	-1923
▁always	-1924
uel	-1925
iment	-1926
▁186	-1927
▁wife	-1928
▁least	-1929
iddle	-1930
▁With	-1931
rown	-1932
aged	-1933
16	-1934
▁free	-1935
▁living	-1936
▁James	-1937
12	-1938
▁Rober	-1939
▁fight	-1940
▁prim	-1941
▁Em	-1942
▁You	-1943
▁important	-1944
▁Ber	-1945
▁intro	-1946
▁office	-1947
outhern	-1948
▁Army	-1949
ades	-1950
ico	-1951
ready	-1952
aliforn	-1953
▁Port	-1954
ms	-1955
▁view	-1956
aps	-1957
▁reached	-1958
▁bas	-1959
aves	-1960
▁debut	-1961
▁ten	-1962
▁cou	-1963
▁described	-1964
omb	-1965
▁From	-1966
airs	-1967
▁similar	-1968
▁church	-1969
▁ant	-1970
▁give	-1971
minist	-1972
▁strong	-1973
▁things	-1974
▁rail	-1975
ideo	-1976
duct	-1977
▁engine	-1978
▁popular	-1979
▁Mon	-1980
▁Republic	-1981
hold	-1982
▁caus	-1983
▁Sm	-1984
▁Australia	-1985
▁match	-1986
ett	-1987
▁Thom	-1988
▁George	-1989
▁better	-1990
▁really	-1991
▁invest	-1992
▁political	-1993
utes	-1994
alifornia	-1995
▁2015	-1996
▁proper	-1997
▁ele	-1998
▁Ag	-1999
sequ	-2000
▁Des	-2001
sw	-2002
▁inside	-2003
▁100	-2004
▁test	-2005
▁tou	-2006
▁comb	-2007
▁priv	-2008
isted	-2009
head	-2010
▁India	-2011
▁party	-2012
▁site	-2013
▁inf	-2014
anch	-2015
▁Roman	-2016
iol	-2017
val	-2018
▁wrote	-2019
▁live	-2020
ville	-2021
▁mot	-2022
▁Tw	-2023
▁television	-2024
▁further	-2025
▁hon	-2026
▁Street	-2027
▁Ste	-2028
▁already	-2029
▁cross	-2030
lic	-2031
▁General	-2032
▁military	-2033
hic	-2034
▁considered	-2035
dom	-2036
▁coll	-2037
▁France	-2038
▁er	-2039
ournal	-2040
ama	-2041
ha	-2042
▁24	-2043
▁ident	-2044
lo	-2045
▁quick	-2046
▁broad	-2047
▁official	-2048
ills	-2049
reek	-2050
ferred	-2051
▁works	-2052
▁production	-2053
▁Council	-2054
aint	-2055
ibr	-2056
▁vict	-2057
ample	-2058
▁begin	-2059
▁hair	-2060
▁Party	-2061
ividual	-2062
▁either	-2063
▁187	-2064
▁Ant	-2065
▁Pal	-2066
▁2016	-2067
▁heart	-2068
key	-2069
etwork	-2070
▁California	-2071
▁hit	-2072
▁Cour	-2073
▁Qu	-2074
bor	-2075
▁big	-2076
oke	-2077
▁America	-2078
▁European	-2079
▁mind	-2080
▁followed	-2081
ump	-2082
▁nov	-2083
▁dev	-2084
▁miss	-2085
▁Rich	-2086
▁although	-2087
▁deep	-2088
▁“	-2089
▁fell	-2090
▁2005	-2091
▁Award	-2092
▁pul	-2093
▁aver	-2094
▁particular	-2095
▁Hol	-2096
field	-2097
▁asked	-2098
idence	-2099
ids	-2100
▁trav	-2101
hib	-2102
ming	-2103
olution	-2104
▁Mount	-2105
▁soon	-2106
ological	-2107
ocr	-2108
▁quest	-2109
hing	-2110
ishing	-2111
irt	-2112
iled	-2113
▁moment	-2114
iec	-2115
▁Royal	-2116
▁particip	-2117
▁region	-2118
inn	-2119
▁According	-2120
▁entire	-2121
▁Nor	-2122
orts	-2123
▁Que	-2124
▁sug	-2125
roll	-2126
▁boy	-2127
▁fail	-2128
▁election	-2129
▁performan	-2130
▁mult	-2131
▁Mor	-2132
▁indust	-2133
▁thing	-2134
▁social	-2135
▁foc	-2136
▁anything	-2137
▁fig	-2138
▁international	-2139
ili	-2140
▁mid	-2141
unicip	-2142
wh	-2143
ude	-2144
▁research	-2145
itte	-2146
▁blood	-2147
ending	-2148
▁ce	-2149
▁dou	-2150
▁David	-2151
bert	-2152
oph	-2153
▁Paul	-2154
ption	-2155
▁2000	-2156
▁ap	-2157
ago	-2158
year	-2159
▁Val	-2160
▁services	-2161
▁ve	-2162
▁taking	-2163
▁Canada	-2164
▁individual	-2165
rought	-2166
▁cond	-2167
over	-2168
▁west	-2169
▁ord	-2170
▁east	-2171
▁ren	-2172
ought	-2173
▁Lou	-2174
▁stay	-2175
rem	-2176
▁recogn	-2177
itch	-2178
▁president	-2179
50	-2180
▁founded	-2181
▁cast	-2182
▁Division	-2183
ule	-2184
▁daughter	-2185
▁professional	-2186
▁months	-2187
ban	-2188
▁recorded	-2189
▁relations	-2190
▁aut	-2191
read	-2192
anish	-2193
▁playing	-2194
▁Bel	-2195
▁eight	-2196
pite	-2197
ij	-2198
13	-2199
▁kind	-2200
▁killed	-2201
▁Instit	-2202
▁Association	-2203
BC	-2204
▁hous	-2205
aid	-2206
▁done	-2207
▁influ	-2208
▁instead	-2209
iff	-2210
14	-2211
▁ill	-2212
▁Stud	-2213
▁div	-2214
▁proble	-2215
▁struct	-2216
▁formed	-2217
unk	-2218
▁econom	-2219
▁outside	-2220
▁avail	-2221
oted	-2222
▁prob	-2223
▁2004	-2224
▁above	-2225
ari	-2226
▁park	-2227
▁Mal	-2228
▁Red	-2229
▁circ	-2230
cle	-2231
▁Off	-2232
▁2017	-2233
▁looking	-2234
iers	-2235
lymp	-2236
▁points	-2237
▁hy	-2238
hem	-2239
oul	-2240
▁Hen	-2241
▁Mil	-2242
▁finished	-2243
▁select	-2244
anded	-2245
▁22	-2246
▁fund	-2247
▁release	-2248
▁hap	-2249
itive	-2250
▁tour	-2251
aching	-2252
ique	-2253
▁lear	-2254
▁[	-2255
raz	-2256
▁trying	-2257
▁ship	-2258
ressed	-2259
▁arms	-2260
▁cut	-2261
▁clear	-2262
pted	-2263
▁mater	-2264
▁typ	-2265
oved	-2266
▁employ	-2267
▁tradition	-2268
▁lik	-2269
aign	-2270
▁words	-2271
▁suff	-2272
▁signed	-2273
van	-2274
▁areas	-2275
ression	-2276
▁becom	-2277
aur	-2278
▁Hall	-2279
▁gradu	-2280
aught	-2281
▁Union	-2282
▁fing	-2283
▁ter	-2284
▁pur	-2285
imately	-2286
ceed	-2287
▁gun	-2288
▁video	-2289
wood	-2290
olic	-2291
▁mouth	-2292
▁developed	-2293
▁elected	-2294
▁Olymp	-2295
leg	-2296
▁Jos	-2297
▁director	-2298
▁21	-2299
▁appointed	-2300
▁disco	-2301
▁brought	-2302
uf	-2303
▁information	-2304
▁nothing	-2305
▁23	-2306
▁example	-2307
▁agre	-2308
▁Sen	-2309
▁phys	-2310
▁deg	-2311
▁ca	-2312
▁base	-2313
▁separ	-2314
roy	-2315
▁produc	-2316
▁Australian	-2317
▁Dem	-2318
▁mem	-2319
▁Pat	-2320
nder	-2321
▁laun	-2322
mon	-2323
cher	-2324
▁upon	-2325
▁rev	-2326
▁reported	-2327
▁someone	-2328
▁race	-2329
acing	-2330
▁contract	-2331
▁pick	-2332
▁supp	-2333
ensive	-2334
▁earl	-2335
▁product	-2336
anced	-2337
▁Franc	-2338
▁happen	-2339
▁teams	-2340
▁Company	-2341
▁enc	-2342
▁soft	-2343
▁2018	-2344
itect	-2345
▁rout	-2346
▁toward	-2347
anks	-2348
▁feet	-2349
▁closed	-2350
▁To	-2351
▁stre	-2352
▁Road	-2353
rian	-2354
▁cost	-2355
▁Germany	-2356
▁decided	-2357
sel	-2358
▁sex	-2359
tt	-2360
▁average	-2361
ators	-2362
▁change	-2363
ki	-2364
▁Mary	-2365
estival	-2366
▁review	-2367
▁Je	-2368
atural	-2369
ware	-2370
ights	-2371
ume	-2372
▁mount	-2373
▁Robert	-2374
ston	-2375
▁While	-2376
str	-2377
▁!	-2378
▁move	-2379
▁rul	-2380
▁events	-2381
▁available	-2382
▁anim	-2383
arliam	-2384
ements	-2385
▁Mo	-2386
▁bur	-2387
men	-2388
▁modern	-2389
▁phot	-2390
▁First	-2391
▁Mag	-2392
▁Black	-2393
han	-2394
▁tried	-2395
sy	-2396
ittee	-2397
▁Mart	-2398
fic	-2399
rey	-2400
▁floor	-2401
ospital	-2402
▁ran	-2403
▁Press	-2404
▁cell	-2405
▁stri	-2406
unt	-2407
▁language	-2408
▁dro	-2409
▁break	-2410
▁slow	-2411
itt	-2412
arliament	-2413
▁successful	-2414
▁added	-2415
ray	-2416
▁hor	-2417
medi	-2418
istic	-2419
▁Court	-2420
▁di	-2421
▁finally	-2422
▁hot	-2423
▁signific	-2424
▁suggest	-2425
▁Pri	-2426
▁remained	-2427
▁parent	-2428
ership	-2429
urt	-2430
kn	-2431
▁course	-2432
▁Wash	-2433
▁heard	-2434
itar	-2435
▁table	-2436
▁independ	-2437
198	-2438
▁rather	-2439
ensus	-2440
▁Histor	-2441
▁wood	-2442
craft	-2443
erous	-2444
▁leave	-2445
▁Thomas	-2446
iction	-2447
room	-2448
▁sle	-2449
,"	-2450
▁lif	-2451
olf	-2452
ification	-2453
▁sour	-2454
itz	-2455
aker	-2456
▁Sam	-2457
aled	-2458
▁doc	-2459
band	-2460
▁hear	-2461
▁pay	-2462
▁China	-2463
▁cal	-2464
ential	-2465
ya	-2466
tr	-2467
▁education	-2468
▁deal	-2469
▁Academ	-2470
▁certain	-2471
▁26	-2472
▁2003	-2473
time	-2474
▁yet	-2475
▁Charles	-2476
▁mur	-2477
▁features	-2478
▁Society	-2479
▁2,	-2480
etimes	-2481
▁Law	-2482
acher	-2483
▁Cap	-2484
▁situ	-2485
▁material	-2486
▁Center	-2487
▁performed	-2488
azine	-2489
▁Music	-2490
ging	-2491
ears	-2492
▁seven	-2493
asing	-2494
▁Some	-2495
▁gold	-2496
▁Mex	-2497
▁Washington	-2498
cy	-2499
▁administ	-2500
▁friends	-2501
ks	-2502
ecutive	-2503
▁episode	-2504
berg	-2505
▁eventually	-2506
▁grand	-2507
▁Jack	-2508
▁data	-2509
▁minutes	-2510
▁surv	-2511
▁usually	-2512
▁28	-2513
▁Island	-2514
▁Department	-2515
▁Central	-2516
▁sus	-2517
▁der	-2518
▁esc	-2519
▁1990	-2520
enced	-2521
▁2002	-2522
▁exist	-2523
▁27	-2524
▁ple	-2525
▁police	-2526
▁2001	-2527
ederal	-2528
igned	-2529
pro	-2530
▁hom	-2531
▁access	-2532
iqu	-2533
▁directed	-2534
chie	-2535
▁regular	-2536
ires	-2537
▁lab	-2538
▁cand	-2539
play	-2540
11	-2541
▁study	-2542
burg	-2543
▁possible	-2544
▁fav	-2545
west	-2546
▁Rail	-2547
▁leading	-2548
arr	-2549
ethod	-2550
isl	-2551
pec	-2552
eal	-2553
▁UK	-2554
▁market	-2555
▁designed	-2556
▁Group	-2557
▁placed	-2558
CA	-2559
▁cop	-2560
30	-2561
▁running	-2562
▁Sl	-2563
▁court	-2564
▁impro	-2565
▁campaign	-2566
▁Institute	-2567
▁involved	-2568
▁pulled	-2569
▁radio	-2570
▁needed	-2571
▁viol	-2572
▁acqu	-2573
▁wid	-2574
ctor	-2575
▁creat	-2576
rup	-2577
▁training	-2578
▁My	-2579
▁wor	-2580
▁space	-2581
▁private	-2582
▁capt	-2583
ka	-2584
ength	-2585
ability	-2586
uture	-2587
▁respons	-2588
▁exc	-2589
▁Serv	-2590
▁saf	-2591
▁fif	-2592
ilities	-2593
ala	-2594
▁Alex	-2595
▁throughout	-2596
▁word	-2597
odes	-2598
ena	-2599
▁dead	-2600
▁Mad	-2601
ategory	-2602
viron	-2603
▁league	-2604
▁draw	-2605
elling	-2606
atory	-2607
▁completed	-2608
inese	-2609
▁money	-2610
ida	-2611
▁Minister	-2612
▁Don	-2613
▁ang	-2614
▁TV	-2615
▁Vol	-2616
▁Japanese	-2617
pect	-2618
▁watch	-2619
▁king	-2620
▁force	-2621
▁et	-2622
pped	-2623
▁construction	-2624
asons	-2625
ilies	-2626
ician	-2627
▁resul	-2628
▁includes	-2629
▁center	-2630
▁ball	-2631
▁inj	-2632
▁chap	-2633
▁Angel	-2634
▁stood	-2635
ands	-2636
▁novel	-2637
▁originally	-2638
▁Tur	-2639
▁Arch	-2640
atives	-2641
urity	-2642
▁forces	-2643
▁currently	-2644
▁largest	-2645
▁Sim	-2646
▁coach	-2647
▁stage	-2648
▁probably	-2649
▁associ	-2650
▁says	-2651
back	-2652
▁towards	-2653
▁2019	-2654
▁lay	-2655
▁Great	-2656
▁ver	-2657
▁style	-2658
▁pot	-2659
▁songs	-2660
▁Cong	-2661
▁1980	-2662
uz	-2663
▁municip	-2664
▁food	-2665
▁Prov	-2666
▁bad	-2667
▁Club	-2668
face	-2669
arter	-2670
▁Che	-2671
▁Grand	-2672
▁aud	-2673
orning	-2674
▁Bay	-2675
▁treat	-2676
▁lot	-2677
hood	-2678
▁health	-2679
▁50	-2680
▁Mont	-2681
ani	-2682
▁idea	-2683
▁players	-2684
▁arg	-2685
▁hours	-2686
icy	-2687
apt	-2688
▁liter	-2689
▁respect	-2690
▁Cam	-2691
▁Michael	-2692
ises	-2693
▁subject	-2694
▁185	-2695
▁Met	-2696
▁Vir	-2697
▁breath	-2698
ving	-2699
pecially	-2700
vernor	-2701
ev	-2702
▁Mark	-2703
▁Jew	-2704
▁household	-2705
▁Cath	-2706
▁featured	-2707
▁assist	-2708
▁herself	-2709
▁Cont	-2710
▁relig	-2711
▁wat	-2712
mar	-2713
▁Mac	-2714
▁Western	-2715
▁seemed	-2716
▁coming	-2717
▁Louis	-2718
▁significant	-2719
▁Best	-2720
▁quickly	-2721
▁Town	-2722
▁board	-2723
ano	-2724
elled	-2725
▁Canadian	-2726
▁conduct	-2727
▁plant	-2728
▁everything	-2729
▁bene	-2730
▁rank	-2731
▁decl	-2732
ores	-2733
▁jud	-2734
▁mass	-2735
▁seat	-2736
▁changed	-2737
▁Commun	-2738
ibrary	-2739
▁bit	-2740
ounter	-2741
osition	-2742
▁Sal	-2743
▁Although	-2744
▁job	-2745
ushed	-2746
▁chair	-2747
illed	-2748
▁piec	-2749
nes	-2750
▁shot	-2751
ipped	-2752
▁Miss	-2753
▁reve	-2754
incip	-2755
era	-2756
▁Christian	-2757
▁Museum	-2758
oud	-2759
▁network	-2760
eph	-2761
irm	-2762
▁replaced	-2763
▁Vict	-2764
▁groups	-2765
omm	-2766
▁bi	-2767
▁obs	-2768
▁spent	-2769
▁Rad	-2770
▁college	-2771
mb	-2772
▁whole	-2773
ournament	-2774
▁184	-2775
▁model	-2776
▁awarded	-2777
▁except	-2778
▁Scott	-2779
▁forward	-2780
▁civil	-2781
▁performance	-2782
▁Kn	-2783
▁bring	-2784
▁Since	-2785
oring	-2786
▁longer	-2787
uter	-2788
▁river	-2789
▁Academy	-2790
▁answ	-2791
ography	-2792
▁reb	-2793
▁mix	-2794
atal	-2795
▁Film	-2796
ishop	-2797
▁Sing	-2798
▁Gold	-2799
▁relationship	-2800
▁doing	-2801
▁But	-2802
like	-2803
aries	-2804
erve	-2805
197	-2806
▁African	-2807
▁reason	-2808
aine	-2809
ula	-2810
merc	-2811
▁conv	-2812
▁sometimes	-2813
ny	-2814
▁Russian	-2815
▁Tex	-2816
▁Ear	-2817
▁female	-2818
imate	-2819
▁states	-2820
▁White	-2821
▁Trans	-2822
ux	-2823
rd	-2824
▁anal	-2825
enty	-2826
▁provided	-2827
▁Chinese	-2828
▁occur	-2829
▁books	-2830
icated	-2831
▁loss	-2832
atre	-2833
▁goal	-2834
▁range	-2835
▁schools	-2836
▁Bill	-2837
▁Wil	-2838
▁Green	-2839
▁especially	-2840
vironment	-2841
▁29	-2842
▁Italian	-2843
▁Its	-2844
▁god	-2845
▁object	-2846
▁Henry	-2847
▁size	-2848
▁Richard	-2849
▁touch	-2850
agon	-2851
astern	-2852
asc	-2853
▁whose	-2854
▁artic	-2855
ping	-2856
▁Frank	-2857
▁Peter	-2858
▁below	-2859
iation	-2860
▁passed	-2861
▁Lat	-2862
irth	-2863
▁sem	-2864
▁central	-2865
▁Cr	-2866
▁1970	-2867
,000	-2868
▁countries	-2869
▁maybe	-2870
▁architect	-2871
▁block	-2872
▁corn	-2873
▁allowed	-2874
▁subsequ	-2875
▁kept	-2876
▁itself	-2877
▁Paris	-2878
▁Sur	-2879
rel	-2880
arily	-2881
▁kiss	-2882
vey	-2883
▁stated	-2884
▁wide	-2885
▁sen	-2886
▁Im	-2887
osing	-2888
▁means	-2889
▁lower	-2890
▁fourth	-2891
▁leaving	-2892
aval	-2893
▁/	-2894
annel	-2895
▁Cons	-2896
▁beginning	-2897
▁constit	-2898
▁Mer	-2899
▁Tom	-2900
▁self	-2901
ria	-2902
▁Francis	-2903
▁1999	-2904
bour	-2905
hest	-2906
istry	-2907
▁Democr	-2908
▁travel	-2909
▁Mat	-2910
▁achie	-2911
▁immedi	-2912
▁Other	-2913
▁meas	-2914
ship	-2915
▁Dan	-2916
▁Pet	-2917
▁hall	-2918
▁abs	-2919
AR	-2920
▁key	-2921
▁aircraft	-2922
ien	-2923
▁determ	-2924
▁sister	-2925
fect	-2926
▁shows	-2927
bl	-2928
reland	-2929
▁understand	-2930
▁remember	-2931
ground	-2932
▁neigh	-2933
▁getting	-2934
ecess	-2935
lying	-2936
fort	-2937
▁Foot	-2938
▁parts	-2939
owers	-2940
▁competition	-2941
▁Tor	-2942
▁Africa	-2943
▁Spanish	-2944
rief	-2945
▁cy	-2946
shire	-2947
▁degree	-2948
0,000	-2949
uke	-2950
▁complet	-2951
▁pers	-2952
▁battle	-2953
▁account	-2954
▁provide	-2955
hi	-2956
board	-2957
▁parents	-2958
▁future	-2959
▁Direct	-2960
anned	-2961
▁surround	-2962
▁today	-2963
gen	-2964
ples	-2965
▁ge	-2966
▁farm	-2967
▁ended	-2968
ona	-2969
oviet	-2970
usband	-2971
ergy	-2972
▁beg	-2973
▁tro	-2974
▁island	-2975
▁Kingdom	-2976
▁earlier	-2977
add	-2978
▁sett	-2979
▁App	-2980
▁Virgin	-2981
▁40	-2982
oint	-2983
▁imm	-2984
▁Rev	-2985
▁hop	-2986
▁myself	-2987
▁buildings	-2988
▁Inter	-2989
▁question	-2990
▁Smith	-2991
▁capital	-2992
rael	-2993
▁box	-2994
▁type	-2995
▁introduced	-2996
▁approx	-2997
▁lived	-2998
▁Chic	-2999
▁compan	-3000
iles	-3001
edy	-3002
▁regard	-3003
▁pred	-3004
▁walked	-3005
ension	-3006
selves	-3007
▁action	-3008
▁secret	-3009
▁discover	-3010
▁Camp	-3011
▁anc	-3012
▁onto	-3013
▁den	-3014
order	-3015
ees	-3016
aded	-3017
▁transl	-3018
▁movement	-3019
▁actually	-3020
ini	-3021
▁summer	-3022
▁command	-3023
▁norm	-3024
uty	-3025
▁Book	-3026
▁rights	-3027
cer	-3028
▁har	-3029
ift	-3030
mercial	-3031
▁else	-3032
oper	-3033
▁occup	-3034
▁focus	-3035
▁Victor	-3036
▁destroy	-3037
▁saying	-3038
▁Los	-3039
▁method	-3040
▁Lit	-3041
▁morning	-3042
ada	-3043
▁alone	-3044
ym	-3045
▁families	-3046
▁raised	-3047
▁Lake	-3048
▁purch	-3049
▁middle	-3050
▁section	-3051
action	-3052
▁Ham	-3053
▁length	-3054
▁bank	-3055
▁neg	-3056
ellow	-3057
ita	-3058
▁Penn	-3059
▁prison	-3060
▁Texas	-3061
well	-3062
▁candid	-3063
oe	-3064
▁Carol	-3065
▁leader	-3066
St	-3067
▁Just	-3068
▁critic	-3069
▁#	-3070
▁pull	-3071
▁Mel	-3072
▁swe	-3073
▁husband	-3074
road	-3075
▁contribut	-3076
▁don	-3077
▁prem	-3078
sych	-3079
▁opening	-3080
▁Fore	-3081
▁1960	-3082
▁investig	-3083
ios	-3084
▁Two	-3085
▁blue	-3086
▁instit	-3087
▁via	-3088
▁Hill	-3089
▁listed	-3090
▁sch	-3091
▁Sant	-3092
▁army	-3093
▁broadcast	-3094
▁1998	-3095
▁wond	-3096
▁Catholic	-3097
▁tax	-3098
ening	-3099
▁threat	-3100
use	-3101
oid	-3102
ams	-3103
▁Rock	-3104
▁entered	-3105
▁older	-3106
▁Commission	-3107
25	-3108
istan	-3109
▁makes	-3110
undred	-3111
ura	-3112
▁Sir	-3113
▁personal	-3114
arian	-3115
iling	-3116
▁southern	-3117
▁scored	-3118
pts	-3119
▁God	-3120
▁happ	-3121
porary	-3122
▁Ben	-3123
▁northern	-3124
alled	-3125
▁diffic	-3126
▁runs	-3127
inct	-3128
ector	-3129
▁forced	-3130
▁frequ	-3131
ibility	-3132
▁difficult	-3133
usion	-3134
▁natural	-3135
▁attempt	-3136
▁weeks	-3137
▁Day	-3138
▁nearly	-3139
▁Do	-3140
▁Bur	-3141
▁date	-3142
▁Not	-3143
▁believe	-3144
fit	-3145
ella	-3146
ograph	-3147
fully	-3148
duction	-3149
asket	-3150
▁roll	-3151
udden	-3152
▁attended	-3153
iced	-3154
▁Kore	-3155
▁whom	-3156
ites	-3157
iences	-3158
▁voc	-3159
uge	-3160
▁coast	-3161
izing	-3162
▁Super	-3163
▁Records	-3164
▁writing	-3165
embly	-3166
▁exhib	-3167
▁emer	-3168
ufact	-3169
ken	-3170
idae	-3171
▁Kh	-3172
▁Second	-3173
ript	-3174
▁Ireland	-3175
omp	-3176
▁fle	-3177
▁higher	-3178
▁takes	-3179
▁maintain	-3180
▁studio	-3181
lebr	-3182
za	-3183
riage	-3184
▁news	-3185
▁try	-3186
▁artist	-3187
antic	-3188
▁Force	-3189
utch	-3190
▁Most	-3191
▁attention	-3192
ails	-3193
asion	-3194
▁Chicago	-3195
▁journal	-3196
umn	-3197
▁tar	-3198
▁previously	-3199
▁Government	-3200
▁moving	-3201
idents	-3202
▁Rob	-3203
▁Play	-3204
rial	-3205
▁heavy	-3206
ado	-3207
▁winning	-3208
▁super	-3209
▁Ma	-3210
orial	-3211
▁3,	-3212
▁gone	-3213
▁meeting	-3214
▁active	-3215
▁Mr	-3216
▁Soviet	-3217
rated	-3218
▁Zeal	-3219
▁Israel	-3220
ota	-3221
▁according	-3222
▁document	-3223
unn	-3224
▁Del	-3225
▁cred	-3226
ply	-3227
▁sea	-3228
▁Football	-3229
▁vot	-3230
▁dig	-3231
▁street	-3232
▁defeated	-3233
▁Committee	-3234
▁Cal	-3235
▁films	-3236
▁Bu	-3237
▁mess	-3238
▁Fin	-3239
▁concern	-3240
▁media	-3241
▁units	-3242
▁sens	-3243
ests	-3244
olk	-3245
196	-3246
▁organization	-3247
▁Zealand	-3248
▁2010,	-3249
▁sudden	-3250
▁required	-3251
▁mention	-3252
het	-3253
▁owned	-3254
een	-3255
isk	-3256
▁skin	-3257
▁glass	-3258
▁matter	-3259
▁History	-3260
▁Educ	-3261
▁division	-3262
▁chest	-3263
▁pen	-3264
itation	-3265
▁stra	-3266
ider	-3267
▁Flor	-3268
▁function	-3269
inent	-3270
▁Cast	-3271
based	-3272
40	-3273
▁Ol	-3274
▁systems	-3275
▁collection	-3276
▁1996	-3277
▁Festival	-3278
▁themselves	-3279
▁lack	-3280
▁establish	-3281
▁Atl	-3282
▁discuss	-3283
▁intern	-3284
▁Saint	-3285
▁chart	-3286
och	-3287
▁lips	-3288
▁complex	-3289
ender	-3290
ils	-3291
▁approximately	-3292
▁princip	-3293
teen	-3294
▁purp	-3295
▁Arts	-3296
▁industry	-3297
▁plays	-3298
erved	-3299
▁beaut	-3300
▁Follow	-3301
▁complete	-3302
▁Er	-3303
▁tow	-3304
▁Swed	-3305
▁nomin	-3306
aked	-3307
▁championship	-3308
AS	-3309
ros	-3310
▁wear	-3311
▁1997	-3312
▁edition	-3313
iant	-3314
▁wr	-3315
▁meant	-3316
not	-3317
▁Brown	-3318
ustom	-3319
▁stopped	-3320
▁staff	-3321
▁smile	-3322
▁structure	-3323
▁plat	-3324
▁Gre	-3325
▁train	-3326
ightly	-3327
isher	-3328
irection	-3329
▁2011,	-3330
ola	-3331
den	-3332
▁dram	-3333
▁census	-3334
▁Congress	-3335
▁caused	-3336
▁green	-3337
▁link	-3338
▁exam	-3339
▁student	-3340
▁property	-3341
earch	-3342
hab	-3343
▁energy	-3344
erry	-3345
▁Carl	-3346
eg	-3347
▁Parliament	-3348
▁paper	-3349
▁text	-3350
▁decision	-3351
▁2012,	-3352
▁brief	-3353
mitted	-3354
▁Found	-3355
▁ur	-3356
▁pal	-3357
▁construct	-3358
▁couple	-3359
▁surpr	-3360
▁log	-3361
▁covered	-3362
▁forest	-3363
inet	-3364
ims	-3365
▁tournament	-3366
known	-3367
▁magazine	-3368
▁phone	-3369
▁susp	-3370
oo	-3371
▁vehic	-3372
abb	-3373
▁represented	-3374
otion	-3375
▁multip	-3376
▁primary	-3377
▁Following	-3378
igan	-3379
▁disp	-3380
▁practice	-3381
▁studied	-3382
▁neck	-3383
▁Navy	-3384
▁commercial	-3385
▁standing	-3386
▁Mass	-3387
aring	-3388
ously	-3389
▁standard	-3390
▁screen	-3391
▁settle	-3392
inary	-3393
▁helped	-3394
heast	-3395
▁fast	-3396
▁Ann	-3397
▁writer	-3398
▁Str	-3399
▁Public	-3400
▁appearance	-3401
chen	-3402
see	-3403
▁noted	-3404
▁inn	-3405
▁183	-3406
▁giving	-3407
anda	-3408
▁singer	-3409
▁financ	-3410
ether	-3411
▁highest	-3412
▁Pac	-3413
▁Angeles	-3414
▁2014,	-3415
va	-3416
▁fingers	-3417
▁bes	-3418
▁carry	-3419
▁route	-3420
▁2013,	-3421
▁Emp	-3422
▁launched	-3423
▁becoming	-3424
ining	-3425
aches	-3426
▁mission	-3427
▁sun	-3428
▁scient	-3429
reme	-3430
▁managed	-3431
▁traditional	-3432
▁Historic	-3433
▁demon	-3434
▁thr	-3435
yr	-3436
▁Women	-3437
▁Squ	-3438
uments	-3439
▁offered	-3440
roat	-3441
▁thus	-3442
▁du	-3443
▁location	-3444
▁hundred	-3445
▁Secret	-3446
▁guitar	-3447
▁holding	-3448
Ch	-3449
▁qualif	-3450
allen	-3451
NE	-3452
mark	-3453
▁manufact	-3454
**	-3455
▁newsp	-3456
▁speed	-3457
▁sum	-3458
▁generally	-3459
ylvan	-3460
▁officer	-3461
writ	-3462
▁operations	-3463
▁sleep	-3464
▁Board	-3465
venue	-3466
ledge	-3467
la	-3468
▁Mod	-3469
▁straight	-3470
▁Scot	-3471
▁gas	-3472
▁anyone	-3473
▁rap	-3474
▁related	-3475
▁2015,	-3476
▁mostly	-3477
▁Category	-3478
▁Greek	-3479
▁protect	-3480
sk	-3481
▁Old	-3482
▁carried	-3483
▁applic	-3484
more	-3485
▁grant	-3486
▁pack	-3487
orpor	-3488
house	-3489
▁indic	-3490
▁railway	-3491
▁4,	-3492
▁teacher	-3493
lit	-3494
▁pret	-3495
▁birth	-3496
win	-3497
▁territ	-3498
▁1995	-3499
▁Under	-3500
▁issues	-3501
▁studies	-3502
▁independent	-3503
ero	-3504
▁adop	-3505
▁lines	-3506
▁mach	-3507
ste	-3508
lor	-3509
itiz	-3510
▁transport	-3511
adium	-3512
oma	-3513
▁Mexico	-3514
▁consider	-3515
▁Joseph	-3516
▁celebr	-3517
bers	-3518
▁feeling	-3519
▁whether	-3520
▁Georg	-3521
ette	-3522
▁31	-3523
ems	-3524
▁visit	-3525
▁2009,	-3526
ners	-3527
▁Class	-3528
▁pict	-3529
▁Liber	-3530
gl	-3531
▁speak	-3532
▁county	-3533
▁prior	-3534
echan	-3535
▁Science	-3536
▁despite	-3537
onse	-3538
ca	-3539
▁believed	-3540
▁amount	-3541
▁1994	-3542
light	-3543
▁1992	-3544
▁Oper	-3545
▁Virginia	-3546
▁bound	-3547
▁Battle	-3548
bur	-3549
▁contains	-3550
oses	-3551
▁Leg	-3552
▁interview	-3553
▁hospital	-3554
▁=	-3555
ylvania	-3556
ulated	-3557
▁minor	-3558
▁poet	-3559
▁surface	-3560
▁Fort	-3561
▁arrived	-3562
▁Italy	-3563
▁shoot	-3564
▁commission	-3565
▁Year	-3566
▁immediately	-3567
▁insp	-3568
▁Pre	-3569
▁2016,	-3570
▁canc	-3571
▁ens	-3572
▁Many	-3573
▁percent	-3574
▁names	-3575
▁terms	-3576
ingu	-3577
▁Mur	-3578
▁Work	-3579
▁true	-3580
▁fort	-3581
▁path	-3582
arn	-3583
aned	-3584
▁environment	-3585
ronic	-3586
irit	-3587
▁direction	-3588
vert	-3589
▁fa	-3590
▁spread	-3591
▁op	-3592
change	-3593
▁western	-3594
▁issue	-3595
▁starting	-3596
enth	-3597
asketball	-3598
▁2008,	-3599
▁academ	-3600
TV	-3601
▁increased	-3602
▁evidence	-3603
▁attract	-3604
▁caught	-3605
▁Star	-3606
▁Techn	-3607
▁sense	-3608
▁chief	-3609
▁manager	-3610
▁Profess	-3611
▁happened	-3612
▁weap	-3613
▁nine	-3614
▁numerous	-3615
ribution	-3616
▁companies	-3617
aven	-3618
▁phil	-3619
▁everyone	-3620
▁additional	-3621
▁Wales	-3622
▁eth	-3623
▁senior	-3624
azz	-3625
▁Mill	-3626
▁reach	-3627
60	-3628
▁remain	-3629
▁create	-3630
▁If	-3631
▁score	-3632
▁mine	-3633
▁twenty	-3634
▁figure	-3635
▁Northern	-3636
lam	-3637
▁Bet	-3638
ato	-3639
▁dom	-3640
▁unit	-3641
ients	-3642
▁belong	-3643
▁schol	-3644
▁2017,	-3645
aze	-3646
▁characters	-3647
NA	-3648
▁science	-3649
aby	-3650
▁sal	-3651
iful	-3652
▁Times	-3653
▁Chief	-3654
▁Martin	-3655
isions	-3656
down	-3657
erem	-3658
ols	-3659
lection	-3660
▁victory	-3661
▁lives	-3662
▁stone	-3663
▁trib	-3664
23	-3665
▁doub	-3666
▁Wood	-3667
ading	-3668
odd	-3669
▁particularly	-3670
▁Arab	-3671
▁shown	-3672
▁Irish	-3673
▁experience	-3674
joy	-3675
▁Register	-3676
▁trade	-3677
▁prevent	-3678
▁Sk	-3679
▁pan	-3680
▁Den	-3681
▁Education	-3682
▁male	-3683
▁politician	-3684
▁ful	-3685
▁remains	-3686
ias	-3687
▁Service	-3688
▁exact	-3689
▁crew	-3690
▁Sun	-3691
bridge	-3692
aved	-3693
▁musical	-3694
bon	-3695
▁matches	-3696
ares	-3697
▁associated	-3698
▁cold	-3699
▁Up	-3700
▁selected	-3701
illa	-3702
icro	-3703
▁Fred	-3704
oral	-3705
▁movie	-3706
imb	-3707
24	-3708
▁comes	-3709
▁Win	-3710
▁poor	-3711
iring	-3712
▁1993	-3713
▁famous	-3714
▁changes	-3715
▁completely	-3716
▁obtain	-3717
sylvania	-3718
FL	-3719
▁larger	-3720
▁refer	-3721
▁Ev	-3722
apped	-3723
▁Summer	-3724
▁failed	-3725
▁firm	-3726
plement	-3727
iance	-3728
▁Sil	-3729
▁goals	-3730
▁medical	-3731
▁income	-3732
▁annual	-3733
unch	-3734
▁legal	-3735
▁Order	-3736
▁cat	-3737
▁Russia	-3738
iano	-3739
aped	-3740
▁ago	-3741
mond	-3742
uman	-3743
iger	-3744
▁Columb	-3745
▁quite	-3746
▁majority	-3747
▁quarter	-3748
ervation	-3749
▁limited	-3750
21	-3751
▁warm	-3752
▁centre	-3753
▁Florida	-3754
▁serious	-3755
▁1950	-3756
80	-3757
▁send	-3758
ricult	-3759
iana	-3760
▁Land	-3761
aph	-3762
▁didnt	-3763
ampion	-3764
▁Later	-3765
itude	-3766
▁appears	-3767
▁feature	-3768
ication	-3769
▁problem	-3770
▁adj	-3771
ua	-3772
▁Research	-3773
▁1991	-3774
ican	-3775
▁2007,	-3776
▁claimed	-3777
▁activities	-3778
anger	-3779
▁hol	-3780
▁cases	-3781
▁consist	-3782
▁spot	-3783
▁Pennsylvania	-3784
▁retired	-3785
▁Olympics	-3786
▁dropped	-3787
▁master	-3788
▁Braz	-3789
▁Sar	-3790
▁target	-3791
▁likely	-3792
ables	-3793
▁window	-3794
▁cam	-3795
▁meaning	-3796
▁Cle	-3797
▁artists	-3798
▁check	-3799
▁Bus	-3800
▁ded	-3801
arrow	-3802
▁2018,	-3803
▁squad	-3804
▁connect	-3805
▁Spec	-3806
aging	-3807
▁arrest	-3808
▁CD	-3809
▁square	-3810
▁pil	-3811
▁Ke	-3812
▁chapter	-3813
▁emb	-3814
▁drink	-3815
▁response	-3816
▁operated	-3817
▁distance	-3818
▁directly	-3819
▁corner	-3820
▁administr	-3821
▁Hot	-3822
▁cry	-3823
▁necess	-3824
▁Dis	-3825
▁Lord	-3826
iny	-3827
umed	-3828
▁Pan	-3829
arden	-3830
▁counter	-3831
▁Boy	-3832
▁shoulder	-3833
▁Spr	-3834
▁university	-3835
▁Ill	-3836
▁serving	-3837
tered	-3838
▁eye	-3839
ao	-3840
ports	-3841
▁rate	-3842
▁Jim	-3843
▁Ros	-3844
▁programs	-3845
▁cause	-3846
▁yes	-3847
▁Southern	-3848
yan	-3849
▁altern	-3850
▁religious	-3851
▁editor	-3852
ón	-3853
▁streng	-3854
▁remaining	-3855
▁mut	-3856
▁Director	-3857
rupt	-3858
uing	-3859
▁enjoy	-3860
▁slowly	-3861
▁contact	-3862
aling	-3863
urb	-3864
unior	-3865
▁initially	-3866
andon	-3867
▁economic	-3868
▁instr	-3869
▁Valley	-3870
▁bridge	-3871
ested	-3872
▁That	-3873
▁grew	-3874
27	-3875
▁temper	-3876
▁search	-3877
▁Fre	-3878
▁beat	-3879
▁shut	-3880
▁management	-3881
II	-3882
▁council	-3883
▁uses	-3884
arters	-3885
▁Province	-3886
▁Edward	-3887
ockey	-3888
▁Out	-3889
▁ir	-3890
▁Gar	-3891
▁custom	-3892
▁results	-3893
▁Over	-3894
obal	-3895
▁problems	-3896
etic	-3897
rugg	-3898
eds	-3899
uries	-3900
omet	-3901
▁Big	-3902
▁grab	-3903
haps	-3904
▁colon	-3905
inals	-3906
▁presented	-3907
▁webs	-3908
antly	-3909
now	-3910
▁color	-3911
▁Brazil	-3912
▁Sa	-3913
▁whis	-3914
uan	-3915
▁jack	-3916
▁hun	-3917
▁compos	-3918
▁foreign	-3919
▁So	-3920
▁Inc	-3921
5%	-3922
▁supported	-3923
▁arrang	-3924
▁collabor	-3925
▁share	-3926
▁thinking	-3927
ora	-3928
▁municipality	-3929
▁hell	-3930
▁gre	-3931
▁nearby	-3932
▁culture	-3933
▁security	-3934
▁plans	-3935
▁cho	-3936
▁lic	-3937
rid	-3938
▁Empire	-3939
ession	-3940
▁Def	-3941
▁competed	-3942
▁Pacific	-3943
▁Sub	-3944
▁discovered	-3945
▁Games	-3946
▁referred	-3947
▁legs	-3948
ental	-3949
▁source	-3950
▁marriage	-3951
▁Queen	-3952
▁trust	-3953
▁Bank	-3954
ez	-3955
▁Ox	-3956
▁Social	-3957
▁psych	-3958
▁Their	-3959
▁bow	-3960
▁simply	-3961
▁diss	-3962
uct	-3963
cles	-3964
▁Iran	-3965
▁medal	-3966
bre	-3967
▁ready	-3968
▁specific	-3969
with	-3970
atively	-3971
ibly	-3972
▁metal	-3973
ario	-3974
▁Haw	-3975
▁houses	-3976
▁increase	-3977
cend	-3978
22	-3979
▁Dou	-3980
▁Britain	-3981
▁separate	-3982
▁Jud	-3983
astic	-3984
▁Ver	-3985
▁status	-3986
▁van	-3987
abeth	-3988
▁theory	-3989
bury	-3990
▁earth	-3991
▁5,	-3992
▁ice	-3993
▁Ap	-3994
itan	-3995
▁drug	-3996
▁expected	-3997
▁nature	-3998
imum	-3999
▁McC	-4000
▁wild	-4001
ror	-4002
▁convers	-4003
aily	-4004
inated	-4005
▁federal	-4006
▁Awards	-4007
▁anti	-4008
▁forms	-4009
▁Step	-4010
oston	-4011
▁department	-4012
▁comment	-4013
▁Ha	-4014
▁girls	-4015
▁Radio	-4016
ga	-4017
▁mr	-4018
▁sequ	-4019
ify	-4020
emporary	-4021
ati	-4022
ta	-4023
▁Hel	-4024
ns	-4025
ties	-4026
▁1989	-4027
▁wound	-4028
▁double	-4029
▁Life	-4030
mission	-4031
▁Ter	-4032
▁society	-4033
▁III	-4034
▁troops	-4035
▁trou	-4036
▁Governor	-4037
pre	-4038
▁sports	-4039
▁Spain	-4040
isation	-4041
apers	-4042
▁1988	-4043
▁professor	-4044
▁prin	-4045
▁Civil	-4046
▁policy	-4047
▁crow	-4048
▁earned	-4049
▁card	-4050
▁captain	-4051
▁edge	-4052
▁Sol	-4053
▁favor	-4054
▁financial	-4055
▁eastern	-4056
▁Young	-4057
ipl	-4058
▁su	-4059
▁Championships	-4060
▁Carolina	-4061
▁Assembly	-4062
▁responsible	-4063
▁platform	-4064
ucle	-4065
▁overall	-4066
▁max	-4067
ortun	-4068
iro	-4069
▁fit	-4070
▁tracks	-4071
▁Mos	-4072
▁Jewish	-4073
utions	-4074
▁computer	-4075
▁continue	-4076
▁Mem	-4077
▁soldiers	-4078
▁chance	-4079
ety	-4080
vention	-4081
▁silver	-4082
▁variety	-4083
▁require	-4084
▁bott	-4085
FA	-4086
▁scene	-4087
▁miles	-4088
▁Prog	-4089
▁nation	-4090
▁subsequently	-4091
▁2006,	-4092
▁Oh	-4093
illy	-4094
▁dont	-4095
gar	-4096
▁genus	-4097
▁thous	-4098
▁quiet	-4099
▁Di	-4100
26	-4101
▁Gall	-4102
▁recent	-4103
▁display	-4104
▁guard	-4105
ali	-4106
ighter	-4107
▁More	-4108
rast	-4109
▁Av	-4110
▁repe	-4111
onn	-4112
irty	-4113
▁Jul	-4114
BA	-4115
SA	-4116
▁watched	-4117
▁pet	-4118
▁Lee	-4119
▁honor	-4120
▁kit	-4121
▁store	-4122
▁citiz	-4123
▁amb	-4124
▁serve	-4125
rance	-4126
▁provides	-4127
▁Journal	-4128
▁composed	-4129
▁actor	-4130
▁stories	-4131
stra	-4132
▁Elect	-4133
▁Series	-4134
▁strugg	-4135
▁Bre	-4136
▁aw	-4137
ysis	-4138
lim	-4139
▁Cross	-4140
28	-4141
▁places	-4142
▁agreed	-4143
ador	-4144
29	-4145
▁domin	-4146
▁Wal	-4147
▁producer	-4148
▁dra	-4149
▁enem	-4150
▁depart	-4151
esh	-4152
▁individuals	-4153
▁ess	-4154
cean	-4155
▁Railway	-4156
▁succeed	-4157
hol	-4158
▁Hon	-4159
▁Long	-4160
gu	-4161
▁recording	-4162
col	-4163
▁technology	-4164
resh	-4165
▁multiple	-4166
▁News	-4167
▁ships	-4168
▁removed	-4169
▁*	-4170
▁tree	-4171
▁offer	-4172
▁univers	-4173
▁Love	-4174
▁imag	-4175
▁sam	-4176
hat	-4177
▁ancient	-4178
▁seasons	-4179
wan	-4180
uten	-4181
▁label	-4182
ellig	-4183
▁Prince	-4184
▁rac	-4185
▁hope	-4186
ira	-4187
▁ut	-4188
▁stations	-4189
▁dog	-4190
rolled	-4191
ager	-4192
no	-4193
▁opt	-4194
Americ	-4195
▁fear	-4196
▁Dutch	-4197
▁ordered	-4198
▁cab	-4199
▁kick	-4200
▁acquired	-4201
▁2019,	-4202
kin	-4203
▁Line	-4204
▁operation	-4205
▁lock	-4206
▁Pak	-4207
▁fix	-4208
▁Mah	-4209
ancy	-4210
▁legisl	-4211
wide	-4212
ran	-4213
▁Despite	-4214
▁mechan	-4215
▁oil	-4216
▁bird	-4217
stant	-4218
▁Tri	-4219
arp	-4220
▁Places	-4221
▁60	-4222
▁mainly	-4223
▁waiting	-4224
▁prep	-4225
vement	-4226
▁latter	-4227
▁sched	-4228
▁opportun	-4229
▁Bob	-4230
▁Hy	-4231
▁Bas	-4232
▁showed	-4233
▁regional	-4234
▁suit	-4235
▁Cur	-4236
ulations	-4237
▁bal	-4238
▁uns	-4239
▁extended	-4240
▁confl	-4241
▁numbers	-4242
▁Democratic	-4243
▁People	-4244
peror	-4245
ensity	-4246
▁commit	-4247
▁dance	-4248
▁Are	-4249
isters	-4250
▁Tour	-4251
▁Bul	-4252
▁estim	-4253
▁sitting	-4254
antry	-4255
▁prec	-4256
▁native	-4257
▁suddenly	-4258
▁influence	-4259
nam	-4260
▁pit	-4261
▁vote	-4262
▁proposed	-4263
▁180	-4264
▁Luc	-4265
▁sand	-4266
▁neighbor	-4267
▁letter	-4268
awa	-4269
oz	-4270
▁fair	-4271
adel	-4272
▁ability	-4273
▁Rh	-4274
▁weight	-4275
▁Theatre	-4276
▁dise	-4277
▁Conference	-4278
mas	-4279
▁Boston	-4280
▁1987	-4281
▁Eastern	-4282
ailed	-4283
ersey	-4284
ansas	-4285
▁stars	-4286
▁Major	-4287
▁situation	-4288
▁guy	-4289
iot	-4290
▁planned	-4291
▁drive	-4292
war	-4293
ih	-4294
▁murder	-4295
▁peace	-4296
gent	-4297
iser	-4298
▁Secretary	-4299
195	-4300
▁trees	-4301
▁piece	-4302
error	-4303
▁historical	-4304
iy	-4305
▁Gal	-4306
▁Song	-4307
90	-4308
▁Latin	-4309
▁consists	-4310
▁acce	-4311
▁6,	-4312
▁autom	-4313
set	-4314
▁records	-4315
▁perfect	-4316
▁Poland	-4317
cel	-4318
▁Both	-4319
▁conditions	-4320
▁presence	-4321
▁revealed	-4322
▁bul	-4323
▁fifth	-4324
osop	-4325
velopment	-4326
▁Engine	-4327
▁leaves	-4328
▁vamp	-4329
▁increasing	-4330
▁hur	-4331
▁crowd	-4332
AT	-4333
▁shop	-4334
▁Sat	-4335
▁wrong	-4336
resp	-4337
odies	-4338
▁border	-4339
▁physical	-4340
yer	-4341
▁concept	-4342
unction	-4343
▁chem	-4344
▁System	-4345
▁talking	-4346
▁bey	-4347
▁1984	-4348
45	-4349
▁1986	-4350
▁Middle	-4351
▁mel	-4352
acks	-4353
dd	-4354
="	-4355
▁Health	-4356
▁Jones	-4357
▁slightly	-4358
▁narrow	-4359
▁ring	-4360
▁graduated	-4361
▁value	-4362
▁smaller	-4363
▁website	-4364
▁BC	-4365
▁hour	-4366
gypt	-4367
kr	-4368
▁broke	-4369
▁intended	-4370
burgh	-4371
▁Scotland	-4372
aya	-4373
▁Earth	-4374
▁perhaps	-4375
▁ult	-4376
▁cities	-4377
▁fine	-4378
▁Team	-4379
gian	-4380
▁accept	-4381
ić	-4382
▁35	-4383
▁7,	-4384
▁dream	-4385
▁beyond	-4386
izabeth	-4387
▁Of	-4388
▁Ty	-4389
othes	-4390
▁65	-4391
▁Bow	-4392
▁attend	-4393
▁mountain	-4394
▁rain	-4395
▁Mu	-4396
ashed	-4397
rif	-4398
▁Post	-4399
▁newspaper	-4400
▁Francisco	-4401
onic	-4402
▁Stan	-4403
▁Ram	-4404
ells	-4405
▁ign	-4406
uts	-4407
rich	-4408
▁organiz	-4409
▁Jac	-4410
▁issued	-4411
▁rare	-4412
poration	-4413
▁rule	-4414
▁purs	-4415
▁realized	-4416
▁lies	-4417
iest	-4418
▁Williams	-4419
▁capac	-4420
▁pair	-4421
edd	-4422
▁online	-4423
▁rob	-4424
aly	-4425
▁article	-4426
▁levels	-4427
▁youth	-4428
70	-4429
▁appl	-4430
▁mist	-4431
aka	-4432
ela	-4433
▁flight	-4434
▁Foundation	-4435
book	-4436
ieuten	-4437
▁elements	-4438
▁tall	-4439
rad	-4440
met	-4441
▁45	-4442
▁constructed	-4443
rect	-4444
▁Charl	-4445
▁dress	-4446
▁promoted	-4447
agn	-4448
▁Another	-4449
▁walls	-4450
▁beautiful	-4451
▁upper	-4452
ressive	-4453
▁charge	-4454
▁Library	-4455
▁bare	-4456
▁somew	-4457
▁products	-4458
ila	-4459
▁fighting	-4460
▁Lab	-4461
umber	-4462
▁wait	-4463
▁Sund	-4464
▁Ly	-4465
▁Centre	-4466
▁traff	-4467
▁Ell	-4468
▁1985	-4469
▁elev	-4470
▁Office	-4471
can	-4472
AC	-4473
▁conver	-4474
▁Van	-4475
agement	-4476
enes	-4477
icient	-4478
dney	-4479
igr	-4480
iated	-4481
▁Oxford	-4482
ogue	-4483
▁thick	-4484
ube	-4485
▁destroyed	-4486
ications	-4487
35	-4488
▁Kent	-4489
▁Open	-4490
▁bomb	-4491
▁museum	-4492
▁Jean	-4493
ocked	-4494
▁BBC	-4495
▁brown	-4496
istics	-4497
▁10,	-4498
▁Four	-4499
▁Hu	-4500
▁transferred	-4501
▁effort	-4502
▁Dev	-4503
formed	-4504
▁Philipp	-4505
mir	-4506
▁15,	-4507
▁incorpor	-4508
zy	-4509
▁concent	-4510
▁sor	-4511
▁electric	-4512
▁officers	-4513
gend	-4514
▁Portug	-4515
ushing	-4516
ription	-4517
▁seek	-4518
▁bag	-4519
▁Inf	-4520
▁Broad	-4521
▁Sea	-4522
▁cultural	-4523
▁Tre	-4524
▁closer	-4525
▁id	-4526
▁Men	-4527
anging	-4528
▁pra	-4529
icted	-4530
▁Tim	-4531
awn	-4532
▁ly	-4533
▁knowledge	-4534
▁Michigan	-4535
▁Johnson	-4536
▁highly	-4537
▁filled	-4538
ansion	-4539
▁Top	-4540
▁growing	-4541
▁Also	-4542
▁Wind	-4543
▁goes	-4544
stein	-4545
▁18,	-4546
yard	-4547
ancing	-4548
ieutenant	-4549
BS	-4550
▁initial	-4551
▁normal	-4552
illing	-4553
ugby	-4554
ucky	-4555
▁Coast	-4556
edom	-4557
▁memory	-4558
▁disapp	-4559
▁Bor	-4560
▁tight	-4561
▁Lu	-4562
▁enter	-4563
stone	-4564
▁expression	-4565
amber	-4566
attal	-4567
▁doctor	-4568
▁1930	-4569
▁basketball	-4570
▁channel	-4571
▁Fe	-4572
▁apparent	-4573
ipment	-4574
igg	-4575
▁tim	-4576
▁sort	-4577
obile	-4578
▁looks	-4579
▁defin	-4580
▁residents	-4581
▁whisper	-4582
In	-4583
▁cars	-4584
▁pun	-4585
inem	-4586
▁Sand	-4587
▁Jes	-4588
rog	-4589
▁Represent	-4590
irmed	-4591
▁throw	-4592
▁primarily	-4593
▁pressure	-4594
▁Columbia	-4595
▁Station	-4596
hester	-4597
▁candidate	-4598
▁province	-4599
▁behav	-4600
▁12,	-4601
▁winner	-4602
▁1983	-4603
ima	-4604
▁paid	-4605
▁potential	-4606
▁respond	-4607
▁Tem	-4608
▁reflect	-4609
▁twice	-4610
▁Alexander	-4611
▁Offic	-4612
phy	-4613
▁rose	-4614
▁8,	-4615
▁Egypt	-4616
▁becomes	-4617
▁answer	-4618
▁Corps	-4619
▁Creek	-4620
▁Good	-4621
▁females	-4622
▁Islam	-4623
▁elections	-4624
▁split	-4625
▁officially	-4626
▁approach	-4627
▁Conn	-4628
▁appearances	-4629
▁recently	-4630
ulf	-4631
▁2005,	-4632
▁withd	-4633
AF	-4634
▁mentioned	-4635
▁Asia	-4636
▁Ohio	-4637
ja	-4638
izes	-4639
▁Prem	-4640
▁ton	-4641
▁die	-4642
▁basis	-4643
▁supposed	-4644
▁Professor	-4645
▁produce	-4646
▁oh	-4647
▁Po	-4648
▁watching	-4649
quarters	-4650
part	-4651
▁alongside	-4652
▁settled	-4653
▁Little	-4654
sen	-4655
class	-4656
▁1982	-4657
king	-4658
rier	-4659
▁horse	-4660
▁Bh	-4661
thur	-4662
hens	-4663
▁renamed	-4664
▁defeat	-4665
▁dim	-4666
▁positive	-4667
▁abandon	-4668
ko	-4669
▁pp	-4670
alle	-4671
▁risk	-4672
▁Berlin	-4673
▁Prot	-4674
▁coin	-4675
▁Scottish	-4676
▁image	-4677
▁recognized	-4678
▁Albert	-4679
ye	-4680
▁impact	-4681
▁featuring	-4682
▁laws	-4683
▁Cy	-4684
▁pushed	-4685
▁campus	-4686
▁Bern	-4687
ba	-4688
elle	-4689
ishes	-4690
▁seconds	-4691
▁Prime	-4692
▁24,	-4693
▁ath	-4694
▁finish	-4695
▁mill	-4696
etts	-4697
ources	-4698
eld	-4699
▁Show	-4700
▁Rel	-4701
friend	-4702
▁fully	-4703
▁Jr	-4704
atever	-4705
osen	-4706
▁wing	-4707
▁heav	-4708
▁storm	-4709
oes	-4710
▁sides	-4711
▁buried	-4712
iate	-4713
▁Three	-4714
encies	-4715
▁Est	-4716
▁effects	-4717
▁Max	-4718
▁Ul	-4719
▁Wall	-4720
ends	-4721
▁fellow	-4722
▁purpose	-4723
kins	-4724
vin	-4725
▁rat	-4726
▁Peak	-4727
ented	-4728
▁rules	-4729
▁accepted	-4730
▁Child	-4731
▁Die	-4732
▁Mid	-4733
▁households	-4734
▁branch	-4735
▁losing	-4736
▁races	-4737
ione	-4738
IS	-4739
▁hab	-4740
▁captured	-4741
ault	-4742
clus	-4743
▁ones	-4744
▁spirit	-4745
Ar	-4746
itled	-4747
▁1979	-4748
▁Rout	-4749
▁Asian	-4750
▁solo	-4751
▁Az	-4752
▁truth	-4753
▁Ray	-4754
▁Blue	-4755
▁11,	-4756
oration	-4757
3%	-4758
▁symb	-4759
American	-4760
▁Loc	-4761
▁Head	-4762
▁1940	-4763
▁dedicated	-4764
▁mir	-4765
athan	-4766
▁projects	-4767
▁conducted	-4768
▁prominent	-4769
▁hurt	-4770
▁rub	-4771
orship	-4772
▁gar	-4773
itage	-4774
▁Field	-4775
▁inte	-4776
ributed	-4777
▁Andrew	-4778
▁Hung	-4779
▁growth	-4780
bec	-4781
▁Polish	-4782
▁participated	-4783
▁gives	-4784
▁stream	-4785
▁treatment	-4786
▁efforts	-4787
▁cup	-4788
▁Bal	-4789
▁von	-4790
▁ok	-4791
▁179	-4792
▁flow	-4793
▁magn	-4794
▁simple	-4795
▁1972	-4796
▁broken	-4797
wa	-4798
▁exactly	-4799
achus	-4800
▁Special	-4801
▁sevent	-4802
▁Senate	-4803
▁minute	-4804
▁equipment	-4805
▁powerful	-4806
ava	-4807
▁heat	-4808
▁Sydney	-4809
orter	-4810
▁occurred	-4811
▁wrap	-4812
▁Justice	-4813
▁activity	-4814
▁Born	-4815
▁Development	-4816
ennis	-4817
▁Republican	-4818
▁expect	-4819
▁clean	-4820
▁Add	-4821
▁x	-4822
▁parish	-4823
▁pretty	-4824
▁workers	-4825
▁administrative	-4826
▁bottom	-4827
▁needs	-4828
▁Univers	-4829
▁turning	-4830
▁implement	-4831
▁Avenue	-4832
▁damage	-4833
▁assistant	-4834
▁mor	-4835
▁Water	-4836
▁happy	-4837
▁burn	-4838
▁Som	-4839
▁tells	-4840
▁task	-4841
▁seeing	-4842
▁Kar	-4843
▁stepped	-4844
▁purchased	-4845
▁younger	-4846
▁9,	-4847
▁Kenn	-4848
put	-4849
▁unc	-4850
▁catch	-4851
▁rom	-4852
miss	-4853
▁Georgia	-4854
▁Pen	-4855
rec	-4856
▁strength	-4857
amm	-4858
▁Mot	-4859
icine	-4860
▁Jackson	-4861
▁picked	-4862
▁owner	-4863
▁acting	-4864
▁quality	-4865
▁Enter	-4866
▁suggested	-4867
osh	-4868
▁notable	-4869
▁1976	-4870
▁Gh	-4871
▁encour	-4872
▁yards	-4873
▁FC	-4874
▁capacity	-4875
▁1981	-4876
▁compl	-4877
▁flat	-4878
▁Kr	-4879
▁Card	-4880
▁divided	-4881
2%	-4882
▁Os	-4883
▁seems	-4884
▁Lem	-4885
amily	-4886
bit	-4887
▁Det	-4888
▁Jersey	-4889
▁Corn	-4890
onto	-4891
▁declared	-4892
▁perman	-4893
▁accident	-4894
▁assigned	-4895
▁unable	-4896
▁kitchen	-4897
oh	-4898
▁taught	-4899
▁median	-4900
ederation	-4901
▁therefore	-4902
▁mixed	-4903
▁ahead	-4904
▁rural	-4905
▁paint	-4906
▁address	-4907
75	-4908
▁cerem	-4909
▁nick	-4910
ounds	-4911
▁Ukr	-4912
▁Kong	-4913
▁Far	-4914
▁Federal	-4915
inois	-4916
zen	-4917
▁estate	-4918
▁accomp	-4919
1%	-4920
▁Cat	-4921
respond	-4922
▁historic	-4923
▁Pop	-4924
▁whatever	-4925
▁executive	-4926
▁Rome	-4927
ilding	-4928
ropical	-4929
▁1920	-4930
▁cheek	-4931
▁Li	-4932
▁spring	-4933
ker	-4934
rical	-4935
▁types	-4936
RA	-4937
▁condition	-4938
▁Ba	-4939
▁agreement	-4940
riz	-4941
idden	-4942
▁16,	-4943
▁Elizabeth	-4944
▁Les	-4945
enger	-4946
4%	-4947
▁brothers	-4948
▁Bec	-4949
▁spoke	-4950
▁Ken	-4951
achusetts	-4952
▁tal	-4953
▁tom	-4954
▁1945	-4955
▁bill	-4956
istered	-4957
▁safe	-4958
▁nucle	-4959
▁settlement	-4960
▁fought	-4961
▁Brook	-4962
▁commonly	-4963
▁1978	-4964
▁drama	-4965
▁Bishop	-4966
▁Cult	-4967
▁vac	-4968
▁Base	-4969
8%	-4970
▁yellow	-4971
▁14,	-4972
▁Time	-4973
perial	-4974
▁Int	-4975
▁library	-4976
▁headed	-4977
▁Jeff	-4978
▁row	-4979
nce	-4980
▁Hor	-4981
▁ways	-4982
ef	-4983
▁Ep	-4984
▁wit	-4985
▁dyn	-4986
▁Tam	-4987
▁distinct	-4988
▁Wild	-4989
oir	-4990
usc	-4991
7%	-4992
194	-4993
▁motor	-4994
▁Mas	-4995
▁Viet	-4996
▁mis	-4997
▁1974	-4998
6%	-4999
▁suffered	-5000
▁pattern	-5001
▁tor	-5002
chestra	-5003
found	-5004
▁compared	-5005
▁content	-5006
▁baby	-5007
inity	-5008
▁Hospital	-5009
▁surrounding	-5010
▁extra	-5011
▁gained	-5012
rics	-5013
▁adopted	-5014
▁roy	-5015
▁fresh	-5016
iga	-5017
▁inhab	-5018
▁1968	-5019
mann	-5020
▁Hong	-5021
▁Daniel	-5022
▁resist	-5023
standing	-5024
▁academic	-5025
▁roof	-5026
ologist	-5027
▁Victoria	-5028
▁Way	-5029
▁laugh	-5030
iday	-5031
▁offers	-5032
▁restaur	-5033
▁prote	-5034
▁territory	-5035
▁Ak	-5036
▁Duke	-5037
▁lake	-5038
▁Massachusetts	-5039
▁housing	-5040
claim	-5041
ulpt	-5042
eding	-5043
▁follows	-5044
▁din	-5045
anna	-5046
▁aim	-5047
▁Ash	-5048
▁begins	-5049
ropol	-5050
▁leaders	-5051
▁operating	-5052
gn	-5053
ects	-5054
▁1975	-5055
ching	-5056
▁nob	-5057
▁citizens	-5058
▁Illinois	-5059
onia	-5060
dro	-5061
elly	-5062
▁Publ	-5063
aret	-5064
gely	-5065
▁Gi	-5066
pan	-5067
▁LI	-5068
▁facilities	-5069
▁Game	-5070
▁CE	-5071
▁organized	-5072
▁Each	-5073
▁bought	-5074
▁Ministry	-5075
▁Rog	-5076
allenge	-5077
▁suppl	-5078
▁episodes	-5079
▁rich	-5080
gg	-5081
▁dry	-5082
▁vari	-5083
▁walking	-5084
ricket	-5085
▁conference	-5086
vis	-5087
38	-5088
▁drop	-5089
▁hotel	-5090
▁combined	-5091
▁1977	-5092
▁necessary	-5093
▁coff	-5094
9%	-5095
▁Bang	-5096
▁Ath	-5097
▁union	-5098
▁apart	-5099
▁1973	-5100
▁serves	-5101
OS	-5102
▁Chap	-5103
▁premi	-5104
▁widely	-5105
▁guess	-5106
▁iron	-5107
▁escape	-5108
▁footballer	-5109
▁refused	-5110
▁Ott	-5111
▁kid	-5112
▁80	-5113
▁administration	-5114
▁shif	-5115
▁cool	-5116
▁Ur	-5117
▁ye	-5118
▁agricult	-5119
▁integr	-5120
li	-5121
▁Tro	-5122
▁stared	-5123
▁respectively	-5124
adelph	-5125
ashion	-5126
asy	-5127
▁rough	-5128
aylor	-5129
▁flag	-5130
▁13,	-5131
ivity	-5132
▁sexual	-5133
36	-5134
▁traffic	-5135
olved	-5136
▁gaze	-5137
oured	-5138
▁36	-5139
▁brand	-5140
▁demonstr	-5141
▁languages	-5142
▁labor	-5143
▁Exp	-5144
▁format	-5145
▁fish	-5146
▁mo	-5147
▁stret	-5148
▁Lew	-5149
▁Olympic	-5150
▁empt	-5151
▁Arm	-5152
▁champion	-5153
asure	-5154
▁choice	-5155
unte	-5156
▁Vill	-5157
ji	-5158
▁syn	-5159
▁typically	-5160
hemat	-5161
▁greater	-5162
▁Argent	-5163
achel	-5164
adow	-5165
▁trial	-5166
▁dad	-5167
oms	-5168
▁throat	-5169
gal	-5170
rovers	-5171
▁Bi	-5172
▁Econom	-5173
▁easily	-5174
▁continues	-5175
▁Bell	-5176
▁Night	-5177
duce	-5178
▁page	-5179
adelphia	-5180
▁ble	-5181
erc	-5182
hered	-5183
▁Islands	-5184
▁ven	-5185
▁cas	-5186
▁Corporation	-5187
onents	-5188
▁connected	-5189
▁beside	-5190
▁save	-5191
▁1971	-5192
▁sources	-5193
▁trail	-5194
sey	-5195
▁USA	-5196
▁Jon	-5197
▁semi	-5198
▁joint	-5199
▁cart	-5200
▁Supreme	-5201
ricts	-5202
▁elim	-5203
▁largely	-5204
▁minister	-5205
▁laid	-5206
emeter	-5207
▁safety	-5208
▁shall	-5209
ules	-5210
▁partner	-5211
▁roles	-5212
▁17,	-5213
▁25,	-5214
▁chosen	-5215
▁estimated	-5216
▁aware	-5217
▁Fer	-5218
▁Captain	-5219
▁2004,	-5220
▁rapid	-5221
▁Coll	-5222
iat	-5223
▁allowing	-5224
uous	-5225
▁1969	-5226
▁titled	-5227
▁Ok	-5228
▁pieces	-5229
▁Chair	-5230
▁occasion	-5231
▁focused	-5232
39	-5233
▁Revolution	-5234
▁plants	-5235
▁Dun	-5236
▁vess	-5237
asty	-5238
▁smiled	-5239
▁painting	-5240
▁sight	-5241
uted	-5242
▁je	-5243
isf	-5244
▁Raj	-5245
▁confirmed	-5246
elligence	-5247
▁newly	-5248
▁20,	-5249
37	-5250
▁boys	-5251
▁Common	-5252
▁‘	-5253
▁actress	-5254
▁Lim	-5255
▁entrance	-5256
▁clubs	-5257
▁dial	-5258
▁shared	-5259
▁Spe	-5260
▁conclud	-5261
▁marked	-5262
▁machine	-5263
▁Dar	-5264
onent	-5265
▁transfer	-5266
▁worth	-5267
▁parties	-5268
▁Guard	-5269
▁receive	-5270
▁industrial	-5271
▁Mov	-5272
34	-5273
án	-5274
▁Toronto	-5275
▁code	-5276
▁granted	-5277
▁Cambridge	-5278
wise	-5279
▁Aff	-5280
acew	-5281
▁easy	-5282
▁era	-5283
rim	-5284
▁Att	-5285
▁founder	-5286
▁resident	-5287
▁Lt	-5288
▁ben	-5289
▁Before	-5290
▁sales	-5291
Th	-5292
▁column	-5293
▁questions	-5294
orrow	-5295
▁sport	-5296
▁gets	-5297
▁killing	-5298
▁seats	-5299
▁contest	-5300
500	-5301
▁Cz	-5302
▁correspond	-5303
▁crim	-5304
▁bodies	-5305
▁Program	-5306
which	-5307
▁recomm	-5308
▁gro	-5309
greg	-5310
inger	-5311
pass	-5312
▁tower	-5313
▁wo	-5314
uer	-5315
onym	-5316
▁brain	-5317
▁Joe	-5318
▁Ven	-5319
una	-5320
bourne	-5321
▁70	-5322
▁digital	-5323
▁providing	-5324
▁reduced	-5325
▁returning	-5326
▁communities	-5327
▁hosted	-5328
▁nodd	-5329
ipe	-5330
',	-5331
▁1967	-5332
come	-5333
▁scholars	-5334
▁huge	-5335
▁2000,	-5336
▁Brig	-5337
▁Rod	-5338
where	-5339
▁harm	-5340
▁steps	-5341
▁Police	-5342
▁Airport	-5343
▁holds	-5344
▁recon	-5345
IA	-5346
▁obvious	-5347
▁Band	-5348
▁Hun	-5349
aks	-5350
▁resulted	-5351
▁Queens	-5352
▁temple	-5353
akh	-5354
▁avoid	-5355
iform	-5356
▁wearing	-5357
elve	-5358
▁bot	-5359
▁Ca	-5360
▁Home	-5361
▁rot	-5362
omy	-5363
▁Philadelphia	-5364
▁illust	-5365
▁Wat	-5366
▁stock	-5367
▁Studies	-5368
ctions	-5369
▁Mir	-5370
▁expanded	-5371
▁winter	-5372
▁positions	-5373
▁truck	-5374
▁Anton	-5375
▁End	-5376
▁identified	-5377
▁Lo	-5378
▁disease	-5379
enna	-5380
alls	-5381
real	-5382
▁motion	-5383
pet	-5384
▁Orig	-5385
▁agent	-5386
▁flood	-5387
nic	-5388
▁determined	-5389
▁models	-5390
attalion	-5391
▁descend	-5392
da	-5393
▁Cop	-5394
▁Human	-5395
ruit	-5396
▁critical	-5397
▁reaching	-5398
▁Aut	-5399
▁reading	-5400
ader	-5401
▁animals	-5402
vest	-5403
onze	-5404
▁coal	-5405
under	-5406
▁Santa	-5407
▁bass	-5408
▁setting	-5409
umped	-5410
▁1964	-5411
ses	-5412
▁Hind	-5413
▁90	-5414
▁Korea	-5415
▁tele	-5416
▁instrument	-5417
rig	-5418
▁contain	-5419
▁Ont	-5420
▁Kitt	-5421
▁reject	-5422
▁resulting	-5423
▁commander	-5424
water	-5425
▁Route	-5426
▁controvers	-5427
▁leadership	-5428
▁retire	-5429
avel	-5430
▁soul	-5431
▁Prize	-5432
▁Pers	-5433
aming	-5434
omer	-5435
▁grabbed	-5436
▁unique	-5437
▁telling	-5438
▁attacks	-5439
▁billion	-5440
▁votes	-5441
▁singles	-5442
ipping	-5443
▁Ira	-5444
▁Main	-5445
▁liber	-5446
▁eat	-5447
▁reviews	-5448
▁experiment	-5449
▁creation	-5450
▁constitu	-5451
▁Tra	-5452
▁bath	-5453
▁males	-5454
▁$1	-5455
▁analysis	-5456
▁500	-5457
estic	-5458
▁Bol	-5459
▁enemy	-5460
▁21,	-5461
▁Master	-5462
▁measure	-5463
▁Regiment	-5464
▁Network	-5465
▁19,	-5466
▁Girl	-5467
ulate	-5468
▁cells	-5469
▁allows	-5470
urer	-5471
eless	-5472
▁32	-5473
eller	-5474
▁evening	-5475
▁starring	-5476
▁List	-5477
▁Lar	-5478
ulty	-5479
MS	-5480
▁sweet	-5481
▁bat	-5482
irk	-5483
erk	-5484
▁knowing	-5485
ova	-5486
▁driver	-5487
orro	-5488
▁af	-5489
▁Bridge	-5490
anta	-5491
ervative	-5492
sex	-5493
▁sect	-5494
▁affili	-5495
▁Ta	-5496
▁nominated	-5497
CC	-5498
▁Sher	-5499
▁Mike	-5500
cious	-5501
▁Sever	-5502
inder	-5503
▁classes	-5504
▁ranked	-5505
itors	-5506
▁facility	-5507
▁spons	-5508
▁awards	-5509
ective	-5510
▁Form	-5511
mad	-5512
▁reports	-5513
▁Independ	-5514
▁Wilson	-5515
eral	-5516
▁alt	-5517
▁Turk	-5518
▁Nether	-5519
▁Fair	-5520
▁titles	-5521
▁attacked	-5522
▁react	-5523
▁urban	-5524
inate	-5525
▁Mic	-5526
▁applied	-5527
▁Pakistan	-5528
▁Sus	-5529
lyn	-5530
▁22,	-5531
raham	-5532
▁claims	-5533
▁albums	-5534
▁software	-5535
▁weapons	-5536
▁Gen	-5537
lers	-5538
▁Colon	-5539
eman	-5540
▁Lady	-5541
▁resc	-5542
bro	-5543
▁drew	-5544
umes	-5545
▁Plan	-5546
aug	-5547
emetery	-5548
▁Arthur	-5549
▁34	-5550
ée	-5551
▁30,	-5552
▁municipal	-5553
▁drag	-5554
▁picture	-5555
icks	-5556
▁Indust	-5557
▁humans	-5558
▁Bat	-5559
osite	-5560
▁Earl	-5561
▁proceed	-5562
▁figures	-5563
▁Swedish	-5564
▁okay	-5565
ante	-5566
▁1966	-5567
imal	-5568
ohn	-5569
akers	-5570
oty	-5571
▁Es	-5572
▁stom	-5573
▁concert	-5574
▁protection	-5575
ographer	-5576
▁Sports	-5577
▁Anth	-5578
▁bright	-5579
▁etc	-5580
ads	-5581
▁calling	-5582
▁comedy	-5583
▁1965	-5584
uh	-5585
▁shoulders	-5586
▁Fle	-5587
▁Ontario	-5588
▁element	-5589
▁teaching	-5590
▁exchange	-5591
▁parliament	-5592
▁uncle	-5593
▁philosop	-5594
▁situated	-5595
▁Nations	-5596
▁shape	-5597
▁beneath	-5598
EC	-5599
rence	-5600
▁Hay	-5601
▁nor	-5602
▁density	-5603
▁teeth	-5604
ooth	-5605
▁literature	-5606
▁dang	-5607
▁unknown	-5608
▁promot	-5609
oday	-5610
▁wants	-5611
▁organizations	-5612
▁steel	-5613
▁deliver	-5614
▁royal	-5615
▁covers	-5616
▁poll	-5617
▁Organ	-5618
ais	-5619
▁nort	-5620
▁association	-5621
▁Nic	-5622
▁Stadium	-5623
iques	-5624
▁Fur	-5625
▁actions	-5626
▁calls	-5627
▁23,	-5628
▁boat	-5629
▁Light	-5630
▁distribution	-5631
ighth	-5632
anth	-5633
▁cannot	-5634
▁injury	-5635
▁passing	-5636
▁mm	-5637
▁loved	-5638
▁contemporary	-5639
▁rear	-5640
▁sculpt	-5641
▁Among	-5642
ras	-5643
western	-5644
ographic	-5645
▁comfort	-5646
▁provinc	-5647
▁learned	-5648
▁crime	-5649
▁shirt	-5650
▁snow	-5651
bu	-5652
oken	-5653
iner	-5654
anz	-5655
▁festival	-5656
▁shook	-5657
uls	-5658
▁Intern	-5659
ums	-5660
bell	-5661
▁hes	-5662
heim	-5663
▁succeeded	-5664
▁Budd	-5665
ennes	-5666
▁hero	-5667
uled	-5668
lar	-5669
▁aid	-5670
▁Project	-5671
▁Spacew	-5672
▁Power	-5673
law	-5674
▁Alf	-5675
▁background	-5676
▁formation	-5677
▁advanced	-5678
▁secondary	-5679
▁oldest	-5680
▁vehicle	-5681
gers	-5682
▁Ele	-5683
▁audience	-5684
▁rid	-5685
▁cant	-5686
outheast	-5687
▁sets	-5688
▁Spacewatch	-5689
▁reasons	-5690
▁Business	-5691
▁arrested	-5692
▁Technology	-5693
▁28,	-5694
▁consum	-5695
▁sac	-5696
ilton	-5697
nel	-5698
▁officials	-5699
▁obtained	-5700
itzer	-5701
▁clothes	-5702
▁26,	-5703
▁habit	-5704
▁authority	-5705
▁sons	-5706
▁guest	-5707
▁subs	-5708
▁vo	-5709
▁Stephen	-5710
▁scoring	-5711
▁creating	-5712
urance	-5713
▁baseball	-5714
▁Der	-5715
▁performances	-5716
▁guns	-5717
▁powers	-5718
ii	-5719
▁weak	-5720
antage	-5721
worth	-5722
▁committee	-5723
▁write	-5724
▁flo	-5725
▁possess	-5726
▁express	-5727
▁headquarters	-5728
▁governor	-5729
VD	-5730
▁height	-5731
▁portion	-5732
▁theme	-5733
▁versions	-5734
▁Constit	-5735
190	-5736
▁27,	-5737
▁Forest	-5738
▁Naz	-5739
▁scientific	-5740
▁Highway	-5741
▁stayed	-5742
acement	-5743
▁notes	-5744
▁Through	-5745
▁authorities	-5746
▁reform	-5747
▁Socorro	-5748
▁sites	-5749
ocated	-5750
▁ends	-5751
yt	-5752
▁Fox	-5753
▁turns	-5754
▁attempted	-5755
▁Cub	-5756
▁recover	-5757
▁none	-5758
weight	-5759
▁gri	-5760
MA	-5761
▁Atlantic	-5762
▁castle	-5763
▁Dam	-5764
▁finger	-5765
▁Iraq	-5766
▁leaned	-5767
▁Squad	-5768
▁Maria	-5769
▁letters	-5770
It	-5771
▁rise	-5772
aints	-5773
▁possibly	-5774
▁Because	-5775
▁planning	-5776
▁animal	-5777
▁sky	-5778
▁windows	-5779
▁2003,	-5780
▁Castle	-5781
▁entirely	-5782
▁LINE	-5783
▁forg	-5784
▁Taylor	-5785
▁materials	-5786
▁doors	-5787
▁designated	-5788
▁micro	-5789
also	-5790
▁Chris	-5791
▁cru	-5792
outs	-5793
▁Conf	-5794
▁spect	-5795
▁tong	-5796
▁trip	-5797
▁Freder	-5798
▁instruct	-5799
▁prepar	-5800
▁Like	-5801
▁Netherlands	-5802
▁Command	-5803
▁concer	-5804
▁1944	-5805
▁38	-5806
▁Emperor	-5807
▁Review	-5808
▁vir	-5809
▁LINEAR	-5810
▁Rom	-5811
apping	-5812
how	-5813
writer	-5814
▁mort	-5815
▁Korean	-5816
▁MP	-5817
▁demand	-5818
▁Ret	-5819
ois	-5820
▁trains	-5821
wing	-5822
▁defined	-5823
▁ending	-5824
▁mile	-5825
▁Marsh	-5826
▁achieved	-5827
▁districts	-5828
ayer	-5829
▁existing	-5830
▁neighborhood	-5831
▁daily	-5832
ropri	-5833
enny	-5834
▁pup	-5835
▁ec	-5836
▁replied	-5837
▁pointed	-5838
▁san	-5839
▁stro	-5840
▁shel	-5841
▁Fire	-5842
▁Media	-5843
▁learning	-5844
▁faced	-5845
▁fans	-5846
▁inspired	-5847
▁combat	-5848
aga	-5849
▁partn	-5850
struction	-5851
▁existence	-5852
▁connection	-5853
▁33	-5854
▁visited	-5855
▁Us	-5856
▁relatively	-5857
aste	-5858
but	-5859
▁Mun	-5860
▁opposite	-5861
▁aspect	-5862
▁Ger	-5863
▁bud	-5864
▁reference	-5865
▁starts	-5866
▁airport	-5867
▁Community	-5868
ici	-5869
▁Circ	-5870
▁sixth	-5871
▁pilot	-5872
▁Bad	-5873
▁judge	-5874
▁Walk	-5875
▁flying	-5876
▁luc	-5877
▁coffee	-5878
illery	-5879
▁opportunity	-5880
▁Marc	-5881
▁formerly	-5882
▁chairman	-5883
▁keeping	-5884
▁lifted	-5885
▁frequently	-5886
▁vent	-5887
▁sorry	-5888
osa	-5889
inson	-5890
▁gall	-5891
hedral	-5892
ifically	-5893
▁attempts	-5894
osl	-5895
▁doll	-5896
▁empty	-5897
▁fields	-5898
▁regions	-5899
▁impl	-5900
▁pool	-5901
▁supply	-5902
▁wet	-5903
rete	-5904
▁178	-5905
▁orders	-5906
othing	-5907
▁Ah	-5908
47	-5909
▁causing	-5910
▁Stand	-5911
▁correct	-5912
▁speech	-5913
SC	-5914
▁heavily	-5915
▁Serb	-5916
33	-5917
▁arts	-5918
lan	-5919
▁FI	-5920
aki	-5921
▁nodded	-5922
▁1963	-5923
▁advert	-5924
FC	-5925
owed	-5926
▁Baron	-5927
▁racing	-5928
▁wonder	-5929
▁basic	-5930
▁Color	-5931
▁valley	-5932
cow	-5933
▁highway	-5934
▁calc	-5935
▁shortly	-5936
▁1962	-5937
▁pock	-5938
yo	-5939
igen	-5940
▁centuries	-5941
▁principal	-5942
utional	-5943
▁towns	-5944
▁explained	-5945
▁Czech	-5946
etime	-5947
▁tend	-5948
▁tears	-5949
▁cert	-5950
cluding	-5951
▁vocals	-5952
raid	-5953
urd	-5954
▁athlet	-5955
▁driving	-5956
▁occupied	-5957
▁entry	-5958
▁Gro	-5959
▁aired	-5960
▁entitled	-5961
▁pros	-5962
ika	-5963
raf	-5964
▁Administ	-5965
▁abandoned	-5966
uly	-5967
orney	-5968
▁noticed	-5969
▁29,	-5970
▁desk	-5971
▁cook	-5972
track	-5973
▁opposition	-5974
▁portray	-5975
oln	-5976
amin	-5977
▁Premier	-5978
▁piano	-5979
▁Barb	-5980
▁2020	-5981
isa	-5982
ropolitan	-5983
mes	-5984
▁Greg	-5985
▁Military	-5986
▁missing	-5987
pping	-5988
▁wrest	-5989
lywood	-5990
▁extrem	-5991
▁Short	-5992
▁thank	-5993
▁Dor	-5994
▁effective	-5995
▁politics	-5996
▁Steve	-5997
▁37	-5998
▁ast	-5999
century	-6000
▁Spring	-6001
aire	-6002
▁villages	-6003
▁vehicles	-6004
▁Davis	-6005
▁Test	-6006
▁resources	-6007
▁lect	-6008
LA	-6009
father	-6010
ls	-6011
▁Tok	-6012
▁Wars	-6013
▁apartment	-6014
oven	-6015
uties	-6016
▁twelve	-6017
Le	-6018
▁grass	-6019
lets	-6020
▁kil	-6021
▁showing	-6022
▁thoughts	-6023
▁hill	-6024
▁volume	-6025
SP	-6026
▁Sab	-6027
▁fold	-6028
former	-6029
▁stomach	-6030
while	-6031
▁swim	-6032
owing	-6033
▁Kim	-6034
▁Between	-6035
▁conce	-6036
▁Sweden	-6037
▁Philip	-6038
phas	-6039
usted	-6040
▁copies	-6041
▁repeated	-6042
fe	-6043
▁lat	-6044
▁Han	-6045
▁experi	-6046
agh	-6047
▁theatre	-6048
▁execut	-6049
95	-6050
ocks	-6051
▁Sciences	-6052
65	-6053
48	-6054
▁ox	-6055
▁thin	-6056
ami	-6057
▁defense	-6058
▁Pier	-6059
omot	-6060
▁Golden	-6061
▁Brother	-6062
▁global	-6063
agan	-6064
▁Beach	-6065
▁dipl	-6066
▁publication	-6067
gment	-6068
▁vocal	-6069
▁Abb	-6070
▁+	-6071
▁Lemmon	-6072
▁Kal	-6073
▁documentary	-6074
▁Wel	-6075
▁Region	-6076
▁Polit	-6077
▁1942	-6078
▁wealth	-6079
icked	-6080
▁virt	-6081
▁Bir	-6082
▁Lewis	-6083
▁emot	-6084
▁map	-6085
▁Marg	-6086
▁Medical	-6087
▁solid	-6088
▁Zh	-6089
▁grade	-6090
cont	-6091
▁cancer	-6092
▁1948	-6093
▁composer	-6094
▁receiving	-6095
▁finding	-6096
▁Leon	-6097
▁lands	-6098
▁fuel	-6099
▁finds	-6100
iley	-6101
▁alle	-6102
▁invited	-6103
sky	-6104
▁Web	-6105
▁clearly	-6106
HL	-6107
▁Bru	-6108
▁Mountain	-6109
▁reality	-6110
▁Lind	-6111
ouri	-6112
uses	-6113
▁alive	-6114
▁methods	-6115
kend	-6116
▁colle	-6117
▁hung	-6118
▁briefly	-6119
▁drawn	-6120
▁adapt	-6121
ece	-6122
apes	-6123
▁Billboard	-6124
ownt	-6125
▁Manc	-6126
▁Pit	-6127
▁Due	-6128
▁NY	-6129
▁distingu	-6130
▁approved	-6131
ureau	-6132
▁entertain	-6133
▁Ross	-6134
sm	-6135
otic	-6136
ivered	-6137
boy	-6138
▁Member	-6139
▁sym	-6140
ourney	-6141
▁conflict	-6142
▁Ob	-6143
▁tur	-6144
32	-6145
▁Athlet	-6146
▁wave	-6147
rell	-6148
31	-6149
▁acts	-6150
▁Writ	-6151
iliar	-6152
inth	-6153
▁negot	-6154
▁performing	-6155
▁glanced	-6156
▁decor	-6157
▁relief	-6158
▁witness	-6159
▁price	-6160
▁conversation	-6161
▁Vi	-6162
▁Several	-6163
▁Today	-6164
▁Brad	-6165
▁Tal	-6166
▁note	-6167
ache	-6168
▁message	-6169
▁stuff	-6170
▁carrying	-6171
▁jump	-6172
ori	-6173
chers	-6174
▁clim	-6175
▁Country	-6176
▁subsequent	-6177
▁1961	-6178
▁2002,	-6179
▁ham	-6180
aria	-6181
▁Id	-6182
▁Area	-6183
▁Final	-6184
▁containing	-6185
▁tongue	-6186
adesh	-6187
▁diam	-6188
▁EP	-6189
▁mayor	-6190
▁engineering	-6191
▁learn	-6192
▁whispered	-6193
aska	-6194
▁brick	-6195
▁reaction	-6196
▁interested	-6197
oster	-6198
▁thirty	-6199
▁articles	-6200
▁1956	-6201
▁Mexican	-6202
▁Jer	-6203
uv	-6204
▁critics	-6205
▁application	-6206
▁1919	-6207
▁sought	-6208
long	-6209
▁promotion	-6210
▁fashion	-6211
▁Ball	-6212
▁fly	-6213
▁1946	-6214
▁permanent	-6215
▁Balt	-6216
▁contrast	-6217
▁Cas	-6218
verse	-6219
▁converted	-6220
TA	-6221
▁incident	-6222
▁extensive	-6223
night	-6224
▁Sem	-6225
uation	-6226
rah	-6227
▁employed	-6228
▁Hart	-6229
alo	-6230
▁1943	-6231
▁opposed	-6232
aud	-6233
place	-6234
▁opin	-6235
char	-6236
▁passenger	-6237
SS	-6238
rees	-6239
▁identity	-6240
orough	-6241
▁strike	-6242
life	-6243
▁Ho	-6244
▁streets	-6245
▁nose	-6246
kes	-6247
inus	-6248
IC	-6249
anguage	-6250
▁lov	-6251
▁loud	-6252
anny	-6253
▁Labor	-6254
▁ban	-6255
▁commissioned	-6256
osis	-6257
▁2001,	-6258
▁prof	-6259
▁Moscow	-6260
▁wings	-6261
▁consisted	-6262
▁weather	-6263
▁Week	-6264
▁tick	-6265
body	-6266
oles	-6267
▁equal	-6268
aun	-6269
fr	-6270
▁Son	-6271
▁details	-6272
▁contained	-6273
▁Indones	-6274
dr	-6275
▁Federation	-6276
▁ment	-6277
hire	-6278
▁prepared	-6279
▁Sav	-6280
▁maximum	-6281
▁Memorial	-6282
▁rooms	-6283
▁Melbourne	-6284
itants	-6285
oming	-6286
iang	-6287
▁rein	-6288
▁buy	-6289
▁structures	-6290
ito	-6291
▁wheel	-6292
▁Ford	-6293
▁Legisl	-6294
▁Six	-6295
▁heads	-6296
▁funding	-6297
▁offices	-6298
▁magic	-6299
▁struck	-6300
wich	-6301
olas	-6302
▁Trust	-6303
▁economy	-6304
▁bond	-6305
▁architecture	-6306
▁1958	-6307
▁1959	-6308
▁closely	-6309
urches	-6310
eway	-6311
ür	-6312
▁spr	-6313
▁Stat	-6314
▁Survey	-6315
▁polic	-6316
engers	-6317
▁wish	-6318
▁pressed	-6319
owa	-6320
▁1941	-6321
▁impr	-6322
▁plot	-6323
▁notice	-6324
▁founding	-6325
incoln	-6326
mun	-6327
oto	-6328
onald	-6329
▁na	-6330
▁Harry	-6331
pedition	-6332
keep	-6333
▁Anderson	-6334
▁admitted	-6335
▁Township	-6336
▁tone	-6337
▁request	-6338
▁chose	-6339
nesota	-6340
hr	-6341
▁alternative	-6342
▁emp	-6343
▁occas	-6344
▁Ut	-6345
▁wooden	-6346
▁Free	-6347
▁fleet	-6348
▁sole	-6349
▁sounds	-6350
▁mad	-6351
▁tra	-6352
edia	-6353
▁launch	-6354
▁proved	-6355
▁trained	-6356
▁Nap	-6357
▁Foreign	-6358
uther	-6359
▁lyrics	-6360
▁expansion	-6361
▁Live	-6362
▁temperature	-6363
▁apparently	-6364
▁gray	-6365
fall	-6366
▁hors	-6367
▁falling	-6368
▁copy	-6369
stream	-6370
▁Representatives	-6371
▁journalist	-6372
ID	-6373
anged	-6374
apore	-6375
▁crossed	-6376
▁Minnesota	-6377
dam	-6378
▁satisf	-6379
▁Sunday	-6380
after	-6381
▁nice	-6382
▁remembered	-6383
gency	-6384
▁bronze	-6385
▁trouble	-6386
wick	-6387
ext	-6388
zo	-6389
▁lose	-6390
▁Holy	-6391
▁staring	-6392
▁shell	-6393
pool	-6394
▁Gil	-6395
▁tunn	-6396
▁sust	-6397
▁1939	-6398
▁Ltd	-6399
▁behavior	-6400
▁Modern	-6401
CAA	-6402
▁threw	-6403
▁web	-6404
pson	-6405
ordan	-6406
acter	-6407
clusion	-6408
▁coord	-6409
▁Joh	-6410
▁stands	-6411
▁Var	-6412
▁Hard	-6413
▁defend	-6414
▁Kansas	-6415
▁Channel	-6416
▁injured	-6417
▁lap	-6418
▁chain	-6419
▁1957	-6420
▁steam	-6421
▁progress	-6422
organ	-6423
78	-6424
▁Medal	-6425
▁Let	-6426
▁barely	-6427
▁Books	-6428
▁cooper	-6429
▁ideas	-6430
▁Khan	-6431
▁grin	-6432
▁faith	-6433
state	-6434
▁compar	-6435
▁Down	-6436
▁1947	-6437
▁ultimately	-6438
▁fram	-6439
▁knows	-6440
ults	-6441
46	-6442
▁hired	-6443
▁formal	-6444
▁Ocean	-6445
▁images	-6446
car	-6447
▁grad	-6448
▁violence	-6449
▁failure	-6450
▁feed	-6451
▁Walter	-6452
▁bear	-6453
▁plate	-6454
▁investigation	-6455
▁statement	-6456
▁48	-6457
aning	-6458
99	-6459
ordon	-6460
▁advantage	-6461
▁Magazine	-6462
▁institutions	-6463
oli	-6464
▁favour	-6465
▁surn	-6466
▁successfully	-6467
▁remind	-6468
▁climate	-6469
iments	-6470
▁terror	-6471
▁Affairs	-6472
▁wine	-6473
Al	-6474
wegian	-6475
▁finishing	-6476
▁homes	-6477
▁emphas	-6478
ho	-6479
▁tonight	-6480
▁metres	-6481
▁Bon	-6482
orge	-6483
▁hyp	-6484
ão	-6485
▁skills	-6486
▁propos	-6487
olt	-6488
▁Cape	-6489
▁core	-6490
▁Junior	-6491
▁developing	-6492
▁generation	-6493
idi	-6494
▁multi	-6495
▁appoint	-6496
▁tail	-6497
▁Rem	-6498
▁actual	-6499
▁Whit	-6500
▁ceremony	-6501
▁refers	-6502
acked	-6503
▁collected	-6504
▁1952	-6505
▁Addition	-6506
▁Stock	-6507
onsin	-6508
▁otherwise	-6509
▁regarding	-6510
ivals	-6511
▁sector	-6512
▁technical	-6513
ingly	-6514
cover	-6515
▁ax	-6516
▁gent	-6517
▁Vietnam	-6518
▁Christmas	-6519
▁properties	-6520
▁please	-6521
bar	-6522
▁supporting	-6523
▁retirement	-6524
▁Hou	-6525
icate	-6526
▁Philippines	-6527
▁folk	-6528
isconsin	-6529
▁functions	-6530
▁nerv	-6531
▁Jane	-6532
▁decades	-6533
▁vision	-6534
▁nuclear	-6535
▁legend	-6536
anga	-6537
ocese	-6538
▁silent	-6539
uccess	-6540
▁Tony	-6541
▁Now	-6542
▁1900	-6543
▁pulling	-6544
olished	-6545
iversary	-6546
▁representing	-6547
▁auth	-6548
▁contributed	-6549
▁remark	-6550
98	-6551
▁exclus	-6552
elect	-6553
▁accompan	-6554
TC	-6555
▁armed	-6556
▁worldwide	-6557
▁Manchester	-6558
▁Hamp	-6559
▁Clark	-6560
olec	-6561
cing	-6562
ui	-6563
aser	-6564
▁Cab	-6565
vard	-6566
▁Heart	-6567
▁Ten	-6568
▁birds	-6569
▁Pass	-6570
rate	-6571
oria	-6572
▁cycl	-6573
▁doubt	-6574
▁Ts	-6575
▁observed	-6576
▁patients	-6577
ucked	-6578
▁exhibition	-6579
▁Indiana	-6580
▁cloud	-6581
eline	-6582
▁thousand	-6583
▁category	-6584
▁duty	-6585
▁domestic	-6586
▁assumed	-6587
▁merch	-6588
▁occurs	-6589
▁engaged	-6590
▁funds	-6591
anes	-6592
▁internal	-6593
igration	-6594
har	-6595
wen	-6596
▁quant	-6597
regon	-6598
▁bringing	-6599
▁odd	-6600
▁Simon	-6601
▁clin	-6602
▁Family	-6603
▁rival	-6604
▁Tai	-6605
▁scream	-6606
▁IV	-6607
ennessee	-6608
▁gain	-6609
▁DVD	-6610
▁About	-6611
▁flash	-6612
uese	-6613
▁scale	-6614
▁Vice	-6615
look	-6616
▁Jacob	-6617
▁Squadron	-6618
▁guys	-6619
▁Miller	-6620
▁flu	-6621
▁derived	-6622
▁Ren	-6623
▁Ot	-6624
achelor	-6625
iva	-6626
▁Nick	-6627
▁1955	-6628
▁Ast	-6629
▁300	-6630
▁volunte	-6631
▁Gallery	-6632
▁hockey	-6633
▁locations	-6634
▁Wisconsin	-6635
owntown	-6636
▁Missouri	-6637
▁Singapore	-6638
iti	-6639
▁resear	-6640
aren	-6641
▁AD	-6642
▁uniform	-6643
▁scheduled	-6644
▁Americans	-6645
▁singing	-6646
▁Tar	-6647
▁obl	-6648
▁passes	-6649
▁vampire	-6650
▁Entertain	-6651
▁scr	-6652
▁freedom	-6653
▁Management	-6654
icide	-6655
▁ru	-6656
▁circum	-6657
▁Malays	-6658
▁mand	-6659
ilation	-6660
▁merged	-6661
▁wasnt	-6662
▁afraid	-6663
▁deploy	-6664
▁batter	-6665
▁signal	-6666
▁gather	-6667
rizona	-6668
76	-6669
rait	-6670
edding	-6671
▁sick	-6672
▁Jews	-6673
die	-6674
▁dinner	-6675
▁Norwegian	-6676
ayed	-6677
host	-6678
ST	-6679
otten	-6680
▁Anne	-6681
▁attached	-6682
▁touchdown	-6683
uration	-6684
hist	-6685
▁stadium	-6686
▁expressed	-6687
▁pale	-6688
jan	-6689
▁Prior	-6690
▁alleged	-6691
▁plane	-6692
▁wee	-6693
▁desire	-6694
▁lawyer	-6695
▁difference	-6696
acent	-6697
▁wel	-6698
▁sell	-6699
thew	-6700
▁Eth	-6701
▁Vo	-6702
▁wins	-6703
bing	-6704
rett	-6705
ER	-6706
▁Early	-6707
▁visual	-6708
▁mart	-6709
glas	-6710
▁bedroom	-6711
utation	-6712
▁Norway	-6713
▁bands	-6714
▁recognition	-6715
▁yeah	-6716
▁silence	-6717
▁Roy	-6718
▁Bos	-6719
▁Colorado	-6720
▁Sri	-6721
▁Hans	-6722
ía	-6723
▁surprise	-6724
▁Howard	-6725
49	-6726
▁1954	-6727
▁Front	-6728
▁Lincoln	-6729
▁limit	-6730
▁leads	-6731
▁survived	-6732
▁1949	-6733
▁Upon	-6734
▁speaking	-6735
▁McG	-6736
▁install	-6737
je	-6738
▁Point	-6739
▁understanding	-6740
▁maintained	-6741
olis	-6742
▁Prin	-6743
▁Native	-6744
▁Security	-6745
▁Winter	-6746
▁survey	-6747
▁Maryland	-6748
▁Queensland	-6749
▁Design	-6750
▁sed	-6751
▁aged	-6752
▁restaurant	-6753
▁items	-6754
PA	-6755
▁lady	-6756
▁device	-6757
▁crown	-6758
emic	-6759
▁cous	-6760
uzz	-6761
orage	-6762
▁Further	-6763
▁adult	-6764
ques	-6765
▁programming	-6766
▁consecutive	-6767
▁kids	-6768
▁Ark	-6769
gor	-6770
onom	-6771
▁landsc	-6772
▁tiny	-6773
ecution	-6774
▁Dig	-6775
▁Engineering	-6776
▁lights	-6777
▁sque	-6778
▁Op	-6779
▁neither	-6780
▁qualified	-6781
▁Labour	-6782
▁da	-6783
▁inters	-6784
orders	-6785
▁Doctor	-6786
▁liqu	-6787
agu	-6788
▁argued	-6789
▁junior	-6790
asm	-6791
▁specifically	-6792
▁Du	-6793
tical	-6794
ublin	-6795
ternal	-6796
▁shr	-6797
▁vice	-6798
igation	-6799
▁Tennessee	-6800
▁Lieutenant	-6801
lie	-6802
▁decre	-6803
▁ash	-6804
▁asking	-6805
▁budget	-6806
▁exerc	-6807
▁Bab	-6808
▁resigned	-6809
▁phase	-6810
▁consequ	-6811
▁Ka	-6812
▁joining	-6813
ensed	-6814
▁reign	-6815
▁partnership	-6816
▁Infantry	-6817
▁1953	-6818
▁strange	-6819
▁surprised	-6820
▁Oregon	-6821
▁Only	-6822
▁importance	-6823
▁Muslim	-6824
▁Then	-6825
68	-6826
▁Nich	-6827
▁beach	-6828
▁dismiss	-6829
▁establishment	-6830
▁Executive	-6831
▁tank	-6832
▁garden	-6833
▁Pope	-6834
▁anyway	-6835
▁criminal	-6836
▁Space	-6837
▁scenes	-6838
eler	-6839
▁Austria	-6840
▁environmental	-6841
▁Turn	-6842
SR	-6843
▁literary	-6844
▁chemical	-6845
▁Municip	-6846
▁standards	-6847
▁Ra	-6848
▁ille	-6849
▁teen	-6850
noon	-6851
▁unf	-6852
▁educational	-6853
istol	-6854
▁UN	-6855
stead	-6856
▁Catal	-6857
▁NFL	-6858
pur	-6859
utt	-6860
▁painted	-6861
▁surname	-6862
▁waters	-6863
▁Services	-6864
▁Burn	-6865
ikh	-6866
box	-6867
▁lying	-6868
▁Staff	-6869
▁script	-6870
▁fixed	-6871
▁religion	-6872
▁representative	-6873
appe	-6874
▁incorporated	-6875
▁controlled	-6876
▁Stone	-6877
▁egg	-6878
▁Brian	-6879
▁inform	-6880
do	-6881
▁fired	-6882
▁employees	-6883
▁influenced	-6884
▁registered	-6885
▁Entertainment	-6886
▁hat	-6887
equ	-6888
▁advance	-6889
▁Bah	-6890
▁tied	-6891
▁Though	-6892
▁depth	-6893
▁engineer	-6894
▁missed	-6895
▁symbol	-6896
▁interior	-6897
▁narr	-6898
▁explos	-6899
▁ride	-6900
▁dangerous	-6901
▁Even	-6902
▁objects	-6903
▁programme	-6904
▁Real	-6905
ello	-6906
▁grown	-6907
▁weapon	-6908
▁31,	-6909
▁Forces	-6910
▁catal	-6911
▁independence	-6912
▁diplom	-6913
▁Bureau	-6914
▁surrounded	-6915
▁draft	-6916
▁$2	-6917
▁sword	-6918
▁waited	-6919
miral	-6920
▁frame	-6921
▁Hand	-6922
▁convinc	-6923
eed	-6924
lah	-6925
▁tries	-6926
▁foundation	-6927
▁voted	-6928
ateur	-6929
hetic	-6930
▁improve	-6931
▁hearing	-6932
▁shooting	-6933
▁pages	-6934
▁priest	-6935
▁opera	-6936
▁Liberal	-6937
obe	-6938
▁helping	-6939
▁experienced	-6940
▁assess	-6941
▁Building	-6942
uster	-6943
▁spin	-6944
▁landing	-6945
▁advent	-6946
▁1951	-6947
▁Naval	-6948
▁paintings	-6949
▁affected	-6950
▁dates	-6951
▁Dur	-6952
▁belief	-6953
▁consult	-6954
▁Kat	-6955
▁Rural	-6956
urday	-6957
▁NCAA	-6958
▁hydro	-6959
▁Arizona	-6960
▁installed	-6961
▁Turkey	-6962
▁Television	-6963
▁hed	-6964
▁inaug	-6965
▁Abd	-6966
▁Fame	-6967
inally	-6968
Un	-6969
▁loan	-6970
otte	-6971
▁Rose	-6972
▁1999,	-6973
▁greatest	-6974
▁capable	-6975
▁causes	-6976
▁39	-6977
pret	-6978
▁covering	-6979
▁Roll	-6980
▁engines	-6981
▁concerned	-6982
▁Hamilton	-6983
▁myster	-6984
▁Su	-6985
▁negative	-6986
▁explain	-6987
anches	-6988
▁49	-6989
▁regarded	-6990
▁Adam	-6991
▁promote	-6992
owered	-6993
▁stick	-6994
▁Aud	-6995
▁synt	-6996
▁Domin	-6997
▁Portuguese	-6998
▁slid	-6999
▁Sum	-7000
▁papers	-7001
▁sharp	-7002
oked	-7003
isms	-7004
▁wore	-7005
▁Author	-7006
▁combination	-7007
▁sty	-7008
roit	-7009
▁rugby	-7010
asts	-7011
▁lie	-7012
aux	-7013
▁44	-7014
▁sale	-7015
▁Marine	-7016
▁Low	-7017
pa	-7018
▁interact	-7019
▁stating	-7020
ifying	-7021
▁tex	-7022
▁knock	-7023
org	-7024
▁weekend	-7025
▁Sound	-7026
▁historian	-7027
▁Transport	-7028
▁producing	-7029
▁strateg	-7030
aro	-7031
▁Niger	-7032
▁planet	-7033
▁corpor	-7034
▁ped	-7035
▁spend	-7036
▁fiction	-7037
▁Mit	-7038
▁Liter	-7039
▁jur	-7040
▁smooth	-7041
▁profession	-7042
▁candidates	-7043
▁remov	-7044
▁unus	-7045
▁educated	-7046
▁challenge	-7047
ogy	-7048
▁Turkish	-7049
agues	-7050
▁views	-7051
point	-7052
▁poetry	-7053
▁cris	-7054
▁shit	-7055
▁agency	-7056
▁Div	-7057
▁Well	-7058
▁concluded	-7059
ghan	-7060
ci	-7061
entially	-7062
▁Wolf	-7063
▁classical	-7064
▁putting	-7065
▁hide	-7066
▁Temple	-7067
aza	-7068
spe	-7069
▁graduate	-7070
▁delivered	-7071
▁introduction	-7072
▁charged	-7073
▁Frederick	-7074
▁Prim	-7075
▁400	-7076
▁familiar	-7077
▁painter	-7078
▁Alb	-7079
mont	-7080
▁Pot	-7081
▁wounded	-7082
85	-7083
▁fro	-7084
▁extremely	-7085
ologies	-7086
hyth	-7087
ieval	-7088
atures	-7089
▁Ali	-7090
▁worry	-7091
itzerland	-7092
▁paralle	-7093
▁Adv	-7094
▁selection	-7095
▁peak	-7096
▁liked	-7097
▁grounds	-7098
▁flowers	-7099
▁rolled	-7100
enses	-7101
▁alex	-7102
▁Hur	-7103
▁comic	-7104
PS	-7105
▁mathemat	-7106
▁grey	-7107
▁Rand	-7108
▁consisting	-7109
iable	-7110
atically	-7111
▁biggest	-7112
▁lord	-7113
és	-7114
▁Officer	-7115
erb	-7116
:00	-7117
▁gene	-7118
▁Gram	-7119
▁queen	-7120
▁Allen	-7121
64	-7122
▁thousands	-7123
agen	-7124
▁poly	-7125
▁drawing	-7126
▁Chairman	-7127
▁wrapped	-7128
▁Brigade	-7129
▁ruled	-7130
ivalent	-7131
▁Patrick	-7132
▁crash	-7133
going	-7134
▁resemb	-7135
▁initi	-7136
▁Eric	-7137
▁accused	-7138
▁roads	-7139
▁Douglas	-7140
▁township	-7141
▁secretary	-7142
iously	-7143
▁mal	-7144
cho	-7145
IT	-7146
We	-7147
wealth	-7148
▁factory	-7149
▁Nik	-7150
▁shed	-7151
stances	-7152
hips	-7153
▁shock	-7154
▁inhabitants	-7155
▁boot	-7156
▁lip	-7157
ructure	-7158
▁residence	-7159
▁recip	-7160
▁compete	-7161
▁Children	-7162
▁plus	-7163
▁resistance	-7164
adi	-7165
▁christ	-7166
▁sid	-7167
▁committed	-7168
▁batt	-7169
▁ethnic	-7170
▁applications	-7171
▁improved	-7172
▁protein	-7173
gery	-7174
▁underst	-7175
▁Beng	-7176
▁moth	-7177
pes	-7178
▁fan	-7179
acle	-7180
▁pin	-7181
▁Gib	-7182
ogen	-7183
▁passengers	-7184
▁govern	-7185
▁FM	-7186
icit	-7187
▁intelligence	-7188
▁pocket	-7189
▁zone	-7190
▁costs	-7191
atherine	-7192
▁gat	-7193
ource	-7194
▁1936	-7195
▁rebu	-7196
▁drove	-7197
▁describes	-7198
▁substant	-7199
▁Cro	-7200
▁dating	-7201
esc	-7202
New	-7203
▁pione	-7204
▁Samuel	-7205
▁superv	-7206
olly	-7207
100	-7208
odox	-7209
▁frag	-7210
▁knees	-7211
appeared	-7212
▁listen	-7213
▁handle	-7214
▁values	-7215
▁Wy	-7216
▁Vis	-7217
▁ol	-7218
▁Pict	-7219
▁usual	-7220
▁Phys	-7221
55	-7222
▁interests	-7223
▁marry	-7224
▁reserve	-7225
An	-7226
▁murd	-7227
▁Ern	-7228
▁purchase	-7229
▁graph	-7230
abri	-7231
▁Gordon	-7232
▁Hug	-7233
▁acid	-7234
▁camera	-7235
▁personnel	-7236
▁ancest	-7237
▁users	-7238
okes	-7239
heme	-7240
▁translated	-7241
ossible	-7242
▁Jesus	-7243
▁1918	-7244
▁falls	-7245
▁playoff	-7246
▁massive	-7247
▁fal	-7248
kh	-7249
▁unless	-7250
aron	-7251
▁franch	-7252
burn	-7253
▁prize	-7254
▁worse	-7255
razy	-7256
▁manner	-7257
▁Trib	-7258
▁Kentucky	-7259
▁Census	-7260
rac	-7261
▁fer	-7262
44	-7263
▁Armen	-7264
▁150	-7265
▁Sin	-7266
aduate	-7267
▁afternoon	-7268
▁reduce	-7269
▁Silver	-7270
▁capture	-7271
AM	-7272
jo	-7273
zz	-7274
▁typical	-7275
odge	-7276
▁Anthony	-7277
vens	-7278
including	-7279
▁por	-7280
▁hoped	-7281
▁Switzerland	-7282
▁thanks	-7283
▁damn	-7284
run	-7285
▁Dick	-7286
avia	-7287
▁photograph	-7288
▁Imperial	-7289
rison	-7290
▁Harvard	-7291
▁protest	-7292
▁revolution	-7293
▁Square	-7294
▁cricket	-7295
▁stairs	-7296
▁Diego	-7297
▁Regional	-7298
phone	-7299
▁operate	-7300
▁Fund	-7301
▁locomot	-7302
inding	-7303
ocol	-7304
▁Back	-7305
▁reserv	-7306
▁mountains	-7307
79	-7308
▁wedding	-7309
iller	-7310
▁encounter	-7311
ucking	-7312
lad	-7313
▁stores	-7314
▁tropical	-7315
▁fil	-7316
from	-7317
▁spoken	-7318
▁suppor	-7319
▁raise	-7320
issance	-7321
▁invasion	-7322
▁separated	-7323
▁handed	-7324
▁Israeli	-7325
▁1938	-7326
anges	-7327
aughters	-7328
▁isol	-7329
▁pregn	-7330
itter	-7331
ardo	-7332
heastern	-7333
▁journey	-7334
umbled	-7335
▁Senior	-7336
US	-7337
angers	-7338
▁bishop	-7339
icts	-7340
owned	-7341
▁Your	-7342
gie	-7343
ogether	-7344
▁Karl	-7345
vo	-7346
ensions	-7347
▁Thus	-7348
▁proced	-7349
▁willing	-7350
▁Houston	-7351
▁divers	-7352
abad	-7353
▁enfor	-7354
▁charges	-7355
▁gang	-7356
oen	-7357
▁Once	-7358
▁damaged	-7359
▁jazz	-7360
86	-7361
▁goods	-7362
▁rising	-7363
▁tie	-7364
don	-7365
attered	-7366
▁appropri	-7367
ommod	-7368
icial	-7369
▁Swiss	-7370
▁convent	-7371
▁Connect	-7372
▁Age	-7373
▁adjacent	-7374
▁extension	-7375
▁regularly	-7376
▁calm	-7377
▁Gard	-7378
▁participate	-7379
▁circle	-7380
know	-7381
▁horses	-7382
▁offering	-7383
▁DC	-7384
ture	-7385
▁arranged	-7386
enz	-7387
▁Internet	-7388
▁Third	-7389
▁Orchestra	-7390
▁Kam	-7391
usal	-7392
▁replace	-7393
▁islands	-7394
▁scar	-7395
▁hidden	-7396
wo	-7397
▁seventh	-7398
▁1998,	-7399
▁Mand	-7400
▁northeast	-7401
▁documents	-7402
▁anger	-7403
▁anth	-7404
term	-7405
▁arrival	-7406
▁Islamic	-7407
▁Oak	-7408
▁wondered	-7409
icians	-7410
▁Tel	-7411
▁techniques	-7412
▁Story	-7413
▁Alan	-7414
▁dressed	-7415
▁climb	-7416
▁Palest	-7417
▁yourself	-7418
▁Juan	-7419
▁crossing	-7420
enh	-7421
▁fat	-7422
▁somewhere	-7423
▁Greece	-7424
Sh	-7425
▁courses	-7426
cha	-7427
▁rif	-7428
▁somehow	-7429
▁benef	-7430
season	-7431
OR	-7432
▁selling	-7433
BI	-7434
▁push	-7435
spec	-7436
coming	-7437
▁medium	-7438
ippi	-7439
▁aer	-7440
▁determine	-7441
▁musician	-7442
opher	-7443
▁hits	-7444
▁responsibility	-7445
▁upd	-7446
▁feelings	-7447
▁Detroit	-7448
▁earliest	-7449
0%	-7450
ibl	-7451
ista	-7452
▁Jay	-7453
''	-7454
▁Croat	-7455
▁darkness	-7456
▁distributed	-7457
▁dies	-7458
ategy	-7459
ducing	-7460
▁doct	-7461
ski	-7462
▁mental	-7463
▁session	-7464
▁translation	-7465
▁electronic	-7466
SI	-7467
▁Bou	-7468
▁edited	-7469
inema	-7470
▁presidential	-7471
▁Commander	-7472
▁rum	-7473
▁breaking	-7474
▁Ale	-7475
using	-7476
inburgh	-7477
iami	-7478
ifer	-7479
▁Commonwealth	-7480
agg	-7481
abama	-7482
▁accur	-7483
rum	-7484
▁observ	-7485
angel	-7486
▁Kl	-7487
▁Hollywood	-7488
▁premiered	-7489
▁vic	-7490
▁sections	-7491
▁rent	-7492
▁Brun	-7493
▁Matt	-7494
lahoma	-7495
▁Finn	-7496
▁pure	-7497
▁Run	-7498
▁Il	-7499
▁desper	-7500
▁adap	-7501
ompl	-7502
▁Conc	-7503
▁credit	-7504
▁constant	-7505
iece	-7506
▁accompanied	-7507
▁somewhat	-7508
mouth	-7509
▁Mayor	-7510
▁hoping	-7511
▁mac	-7512
▁sad	-7513
▁AM	-7514
▁cards	-7515
pper	-7516
▁Hotel	-7517
▁Sky	-7518
di	-7519
▁kissed	-7520
▁1937	-7521
▁answered	-7522
▁burned	-7523
allas	-7524
▁persons	-7525
▁praised	-7526
▁communication	-7527
▁Roc	-7528
▁blank	-7529
stan	-7530
▁angry	-7531
▁undert	-7532
▁returns	-7533
▁accommod	-7534
▁Micro	-7535
▁Dream	-7536
oyd	-7537
▁Clin	-7538
case	-7539
ige	-7540
▁AC	-7541
▁Mississ	-7542
▁Dal	-7543
raph	-7544
▁decade	-7545
▁marine	-7546
▁Belg	-7547
▁advoc	-7548
dale	-7549
▁Ec	-7550
▁Battalion	-7551
67	-7552
uma	-7553
▁myth	-7554
▁Fa	-7555
▁degrees	-7556
▁couldnt	-7557
▁Na	-7558
claimed	-7559
▁agricultural	-7560
▁expand	-7561
▁didn	-7562
arest	-7563
▁teachers	-7564
eries	-7565
▁deleg	-7566
uerto	-7567
▁substit	-7568
▁É	-7569
ilst	-7570
▁Cost	-7571
icut	-7572
▁Jam	-7573
bow	-7574
▁designs	-7575
abled	-7576
▁pill	-7577
▁Dark	-7578
▁Bry	-7579
▁Moore	-7580
▁Baseball	-7581
ounced	-7582
rome	-7583
DP	-7584
▁75	-7585
▁refuge	-7586
rot	-7587
▁comput	-7588
hard	-7589
who	-7590
opter	-7591
▁approached	-7592
pir	-7593
elson	-7594
▁Quebec	-7595
▁coat	-7596
▁Pap	-7597
gun	-7598
▁forth	-7599
▁ensure	-7600
▁Territ	-7601
▁hers	-7602
▁depend	-7603
▁opinion	-7604
▁conqu	-7605
▁businesses	-7606
▁purposes	-7607
▁option	-7608
▁assass	-7609
▁sequence	-7610
▁realize	-7611
earing	-7612
▁expert	-7613
▁Honor	-7614
▁alco	-7615
▁Set	-7616
▁Album	-7617
▁northwest	-7618
azing	-7619
▁noise	-7620
▁42	-7621
▁Dublin	-7622
▁user	-7623
▁philosophy	-7624
▁furn	-7625
▁qual	-7626
▁Farm	-7627
▁Hal	-7628
vi	-7629
acon	-7630
▁accompl	-7631
▁protected	-7632
▁theat	-7633
iders	-7634
▁Lanc	-7635
star	-7636
▁scholar	-7637
▁displ	-7638
▁Sel	-7639
then	-7640
▁moments	-7641
▁What	-7642
▁Deputy	-7643
▁Antonio	-7644
▁railroad	-7645
▁divor	-7646
▁Treat	-7647
▁writers	-7648
uri	-7649
▁branches	-7650
ester	-7651
▁closing	-7652
▁Tokyo	-7653
▁collaboration	-7654
▁absol	-7655
▁Alabama	-7656
ania	-7657
▁moon	-7658
▁Stew	-7659
resents	-7660
▁Phill	-7661
▁Administration	-7662
▁stup	-7663
▁Village	-7664
exp	-7665
▁Hockey	-7666
▁Bowl	-7667
thodox	-7668
▁regiment	-7669
▁Hawai	-7670
des	-7671
▁touched	-7672
osure	-7673
▁normally	-7674
▁owners	-7675
DA	-7676
imore	-7677
▁churches	-7678
▁sav	-7679
▁Care	-7680
▁landed	-7681
▁courts	-7682
ét	-7683
▁rejected	-7684
▁rand	-7685
▁Danish	-7686
▁Oklahoma	-7687
▁Iowa	-7688
umin	-7689
assador	-7690
▁facing	-7691
▁resign	-7692
▁duties	-7693
▁Inn	-7694
aired	-7695
▁waist	-7696
ellite	-7697
▁inher	-7698
▁rating	-7699
level	-7700
▁aside	-7701
▁Youth	-7702
▁kingdom	-7703
▁studying	-7704
▁agree	-7705
asp	-7706
42	-7707
▁Matthew	-7708
▁Louisiana	-7709
eland	-7710
▁concrete	-7711
▁giant	-7712
▁Hills	-7713
▁Puerto	-7714
itely	-7715
▁childhood	-7716
▁involving	-7717
▁veter	-7718
▁Communist	-7719
▁forget	-7720
amps	-7721
▁evil	-7722
▁1997,	-7723
▁veget	-7724
▁surre	-7725
▁1996,	-7726
▁sar	-7727
▁gentle	-7728
▁55	-7729
▁Harris	-7730
69	-7731
▁Lin	-7732
▁Prix	-7733
▁1935	-7734
mate	-7735
hand	-7736
▁Mrs	-7737
▁constituency	-7738
▁Roberts	-7739
▁cousin	-7740
rible	-7741
▁begun	-7742
▁victims	-7743
▁choose	-7744
▁Edinburgh	-7745
value	-7746
▁lad	-7747
▁fict	-7748
▁changing	-7749
inter	-7750
atur	-7751
aver	-7752
bi	-7753
▁debuted	-7754
▁Lyn	-7755
inking	-7756
▁Rights	-7757
▁Jordan	-7758
▁transition	-7759
▁tack	-7760
▁secure	-7761
▁hug	-7762
▁composition	-7763
▁threatened	-7764
▁Chile	-7765
rix	-7766
▁Cooper	-7767
▁gently	-7768
▁represents	-7769
ti	-7770
▁winners	-7771
▁Pa	-7772
ovak	-7773
insula	-7774
▁Deb	-7775
hammad	-7776
▁roughly	-7777
▁soldier	-7778
▁nickn	-7779
▁faces	-7780
▁musicians	-7781
cription	-7782
▁flew	-7783
leep	-7784
▁1917	-7785
▁hip	-7786
mers	-7787
elli	-7788
▁theater	-7789
▁severe	-7790
▁CEO	-7791
yst	-7792
▁mobile	-7793
▁Cook	-7794
▁molec	-7795
▁inner	-7796
▁restored	-7797
alleng	-7798
▁Margaret	-7799
eenth	-7800
LC	-7801
rik	-7802
ception	-7803
▁file	-7804
▁storage	-7805
▁operates	-7806
▁kilomet	-7807
▁Lawrence	-7808
▁examples	-7809
mosp	-7810
▁Nag	-7811
▁Maur	-7812
cons	-7813
▁Lam	-7814
▁chamber	-7815
▁Iron	-7816
enez	-7817
▁Amb	-7818
▁Who	-7819
▁elder	-7820
▁util	-7821
▁decide	-7822
20,	-7823
▁medicine	-7824
ni	-7825
▁Railroad	-7826
▁Associ	-7827
▁Bart	-7828
ughed	-7829
lay	-7830
hythm	-7831
▁residential	-7832
▁Imp	-7833
▁1914	-7834
▁measures	-7835
▁youre	-7836
orph	-7837
▁assistance	-7838
▁pictures	-7839
▁investment	-7840
▁Here	-7841
itched	-7842
▁Argentina	-7843
▁visible	-7844
borough	-7845
▁Crit	-7846
▁enjoyed	-7847
III	-7848
▁Miami	-7849
▁shadow	-7850
▁disappeared	-7851
▁Alfred	-7852
igenous	-7853
▁Global	-7854
▁toss	-7855
▁publisher	-7856
▁contributions	-7857
▁promise	-7858
▁john	-7859
▁laughed	-7860
▁acknow	-7861
▁renov	-7862
▁Kev	-7863
▁patient	-7864
▁Fil	-7865
▁carefully	-7866
Sc	-7867
▁Ban	-7868
obby	-7869
iter	-7870
▁Heritage	-7871
▁shore	-7872
▁defensive	-7873
hus	-7874
▁fant	-7875
RC	-7876
oking	-7877
▁colour	-7878
▁notably	-7879
▁stages	-7880
ieties	-7881
▁cash	-7882
rons	-7883
ancer	-7884
encing	-7885
▁teach	-7886
▁locked	-7887
▁justice	-7888
58	-7889
▁anniversary	-7890
ouses	-7891
▁devices	-7892
▁Eag	-7893
▁fallen	-7894
ework	-7895
avalry	-7896
▁renew	-7897
▁pleasure	-7898
▁cycle	-7899
▁fifteen	-7900
▁Grant	-7901
ographical	-7902
sch	-7903
▁affect	-7904
▁certainly	-7905
olph	-7906
▁1933	-7907
▁jaw	-7908
▁Publishing	-7909
▁testing	-7910
▁absor	-7911
▁understood	-7912
▁subjects	-7913
▁Independent	-7914
asant	-7915
▁emergency	-7916
▁Ped	-7917
▁Five	-7918
▁pink	-7919
▁existed	-7920
▁1929	-7921
unes	-7922
▁Cow	-7923
▁categ	-7924
▁Taiwan	-7925
rant	-7926
▁parking	-7927
▁imprison	-7928
▁solution	-7929
▁Mach	-7930
▁retained	-7931
▁Sym	-7932
ilty	-7933
▁Nob	-7934
km	-7935
2000	-7936
oom	-7937
▁factors	-7938
▁Donald	-7939
▁hal	-7940
▁adding	-7941
▁apprec	-7942
▁hundreds	-7943
▁$3	-7944
▁Information	-7945
▁naval	-7946
▁Pitts	-7947
▁Architect	-7948
▁McK	-7949
▁linked	-7950
▁exception	-7951
▁preced	-7952
▁Da	-7953
oda	-7954
▁Afghan	-7955
hew	-7956
ctic	-7957
▁Johann	-7958
ugh	-7959
ifications	-7960
▁gate	-7961
load	-7962
▁equivalent	-7963
▁Alexand	-7964
izz	-7965
▁Disney	-7966
▁1928	-7967
related	-7968
▁entering	-7969
▁Roger	-7970
▁credited	-7971
▁immigr	-7972
▁hole	-7973
▁tort	-7974
chell	-7975
▁Whe	-7976
▁soph	-7977
▁Pear	-7978
zh	-7979
▁shifted	-7980
▁movements	-7981
▁Connecticut	-7982
▁fruit	-7983
▁Reserve	-7984
she	-7985
struct	-7986
▁vary	-7987
▁PC	-7988
▁impossible	-7989
▁shout	-7990
▁anymore	-7991
▁enh	-7992
▁Mississippi	-7993
62	-7994
▁downtown	-7995
▁meters	-7996
▁Colonel	-7997
▁Environment	-7998
▁hang	-7999
▁worst	-8000
▁tip	-8001
▁Anna	-8002
▁franchise	-8003
▁Dean	-8004
IV	-8005
▁benefit	-8006
lock	-8007
▁gotten	-8008
▁intent	-8009
▁penal	-8010
▁47	-8011
▁tunnel	-8012
iac	-8013
▁eleven	-8014
▁relax	-8015
▁phen	-8016
rehens	-8017
▁Moon	-8018
▁classic	-8019
iah	-8020
▁concerns	-8021
▁Dave	-8022
▁64	-8023
roud	-8024
▁commune	-8025
▁bathroom	-8026
▁asks	-8027
▁forming	-8028
▁starred	-8029
bal	-8030
anner	-8031
▁institution	-8032
▁Hop	-8033
▁Denmark	-8034
▁pitch	-8035
ogan	-8036
▁Ryan	-8037
▁Cre	-8038
▁daughters	-8039
verty	-8040
▁treated	-8041
▁democr	-8042
▁southeast	-8043
ów	-8044
▁factor	-8045
97	-8046
▁quietly	-8047
eded	-8048
▁jul	-8049
▁suggests	-8050
▁blind	-8051
▁Cru	-8052
▁Od	-8053
▁Crown	-8054
▁Ext	-8055
▁Constitution	-8056
▁Every	-8057
▁Fern	-8058
▁Express	-8059
▁rend	-8060
▁context	-8061
▁Mean	-8062
ishment	-8063
veland	-8064
▁archae	-8065
▁rib	-8066
▁Alban	-8067
▁prisoners	-8068
kee	-8069
▁letting	-8070
vements	-8071
▁Ukraine	-8072
▁Ay	-8073
▁significantly	-8074
stal	-8075
▁Ku	-8076
▁faster	-8077
ando	-8078
fast	-8079
▁relative	-8080
▁Beat	-8081
▁switch	-8082
▁innov	-8083
▁Local	-8084
▁Mes	-8085
▁defeating	-8086
rous	-8087
▁ABC	-8088
▁flower	-8089
▁interpret	-8090
▁Belgium	-8091
osm	-8092
lete	-8093
▁Sport	-8094
▁retail	-8095
▁ocean	-8096
▁spark	-8097
▁Montreal	-8098
aware	-8099
▁novels	-8100
pers	-8101
oded	-8102
▁Atlanta	-8103
▁Fac	-8104
▁Operation	-8105
▁Andre	-8106
▁1995,	-8107
rin	-8108
▁poverty	-8109
▁Palace	-8110
▁therap	-8111
eled	-8112
▁soil	-8113
▁Bud	-8114
▁crisis	-8115
▁Laure	-8116
po	-8117
▁fab	-8118
▁southwest	-8119
▁Ll	-8120
▁1934	-8121
athy	-8122
▁banks	-8123
▁Kaz	-8124
▁FA	-8125
▁41	-8126
▁Rick	-8127
▁appearing	-8128
▁Chart	-8129
5,000	-8130
▁occasionally	-8131
▁Brazilian	-8132
▁unsuccess	-8133
▁Additionally	-8134
▁parallel	-8135
▁aspects	-8136
▁bay	-8137
▁prime	-8138
2007	-8139
▁Kevin	-8140
▁Walker	-8141
▁reputation	-8142
▁brig	-8143
▁Metropolitan	-8144
▁guards	-8145
rently	-8146
▁sees	-8147
▁carbon	-8148
bled	-8149
▁racial	-8150
▁CO	-8151
▁Ry	-8152
▁signs	-8153
▁Ener	-8154
▁loyal	-8155
▁rapidly	-8156
▁Liver	-8157
bel	-8158
▁NAS	-8159
oa	-8160
ashes	-8161
▁bon	-8162
▁Lank	-8163
▁Mission	-8164
▁spending	-8165
foot	-8166
▁routes	-8167
▁Bruce	-8168
▁Dyn	-8169
▁moves	-8170
▁differences	-8171
sort	-8172
inian	-8173
▁earn	-8174
▁Gulf	-8175
grade	-8176
door	-8177
emen	-8178
41	-8179
▁Shah	-8180
▁policies	-8181
▁Knight	-8182
▁Peace	-8183
▁string	-8184
▁honest	-8185
▁beauty	-8186
▁1910	-8187
▁depos	-8188
▁warri	-8189
▁knife	-8190
itated	-8191
▁intention	-8192
▁UC	-8193
ellect	-8194
▁temporary	-8195
▁Lang	-8196
▁Cleveland	-8197
▁worried	-8198
igious	-8199
▁Austrian	-8200
phony	-8201
▁requires	-8202
▁Opera	-8203
stic	-8204
▁assign	-8205
election	-8206
▁Death	-8207
▁poem	-8208
▁sail	-8209
▁casual	-8210
▁Welsh	-8211
▁burning	-8212
▁Baltimore	-8213
▁Historical	-8214
▁Senator	-8215
intend	-8216
43	-8217
east	-8218
▁Mountains	-8219
orig	-8220
▁surf	-8221
▁Ottoman	-8222
▁Vienna	-8223
▁Kennedy	-8224
96	-8225
▁Saturday	-8226
▁instance	-8227
orus	-8228
▁José	-8229
Bl	-8230
▁1932	-8231
▁Si	-8232
▁Record	-8233
ulating	-8234
▁Defense	-8235
▁Kings	-8236
▁1924	-8237
▁scheme	-8238
▁fishing	-8239
▁Studios	-8240
erted	-8241
atab	-8242
bishop	-8243
▁Las	-8244
▁Call	-8245
▁colonial	-8246
▁Ky	-8247
▁challeng	-8248
▁nom	-8249
▁alleg	-8250
▁appointment	-8251
▁saved	-8252
▁NE	-8253
▁grace	-8254
▁Ukrain	-8255
imens	-8256
▁Morgan	-8257
▁scre	-8258
▁publishing	-8259
▁acted	-8260
▁leather	-8261
▁Gene	-8262
▁vide	-8263
▁stupid	-8264
▁grandfather	-8265
eron	-8266
He	-8267
▁emerged	-8268
▁criticized	-8269
▁Assist	-8270
rm	-8271
▁membership	-8272
▁neighbour	-8273
▁gest	-8274
2006	-8275
▁weekly	-8276
▁champions	-8277
▁Seattle	-8278
avid	-8279
▁gathered	-8280
▁Garden	-8281
▁Tit	-8282
▁dated	-8283
▁177	-8284
▁responded	-8285
▁Friend	-8286
▁faculty	-8287
▁46	-8288
▁wanting	-8289
▁lin	-8290
▁Princess	-8291
188	-8292
▁net	-8293
▁Rub	-8294
tenance	-8295
▁survive	-8296
▁1994,	-8297
▁Russell	-8298
▁technique	-8299
▁fill	-8300
▁Peters	-8301
▁Last	-8302
▁deputy	-8303
▁golden	-8304
vy	-8305
▁popularity	-8306
adows	-8307
▁liquid	-8308
▁legislation	-8309
▁Bush	-8310
rows	-8311
▁unusual	-8312
tery	-8313
▁rates	-8314
▁hanging	-8315
▁Fried	-8316
amic	-8317
▁balance	-8318
▁achieve	-8319
▁mining	-8320
▁meets	-8321
▁shield	-8322
eling	-8323
2005	-8324
▁Rugby	-8325
ighters	-8326
▁makeup	-8327
asters	-8328
▁friendly	-8329
olo	-8330
▁1922	-8331
▁traveled	-8332
▁provincial	-8333
▁eld	-8334
▁shift	-8335
Mar	-8336
▁compris	-8337
▁releg	-8338
▁instruments	-8339
||	-8340
▁Ker	-8341
▁Fal	-8342
otton	-8343
unc	-8344
issa	-8345
▁ho	-8346
▁organisation	-8347
▁deck	-8348
mm	-8349
▁Germ	-8350
2008	-8351
▁Sac	-8352
▁gender	-8353
▁Sud	-8354
▁visitors	-8355
vant	-8356
▁replacement	-8357
▁1931	-8358
▁withdraw	-8359
▁admit	-8360
apolis	-8361
▁jobs	-8362
eps	-8363
▁torn	-8364
▁Nort	-8365
2010	-8366
▁clothing	-8367
▁cir	-8368
▁Cemetery	-8369
▁Tamil	-8370
▁Key	-8371
PC	-8372
▁rescue	-8373
▁suicide	-8374
▁Sn	-8375
rupted	-8376
▁Arn	-8377
reck	-8378
▁strongly	-8379
▁vs	-8380
▁recru	-8381
▁beating	-8382
▁excell	-8383
▁horror	-8384
▁Buff	-8385
▁successor	-8386
▁indicated	-8387
▁besides	-8388
ultan	-8389
▁Bull	-8390
▁flows	-8391
▁designer	-8392
▁ears	-8393
gress	-8394
▁underground	-8395
▁Stewart	-8396
▁favorite	-8397
icking	-8398
▁1927	-8399
▁tennis	-8400
▁Portugal	-8401
orne	-8402
▁actors	-8403
▁formally	-8404
▁theore	-8405
57	-8406
orf	-8407
▁Vinc	-8408
▁supplies	-8409
▁continuing	-8410
▁Ever	-8411
▁Agency	-8412
▁requirements	-8413
▁sending	-8414
udi	-8415
▁glad	-8416
▁slam	-8417
▁Christopher	-8418
▁stress	-8419
iki	-8420
▁taste	-8421
▁refere	-8422
▁advis	-8423
olves	-8424
▁assault	-8425
▁See	-8426
▁atmosp	-8427
▁useful	-8428
▁possibility	-8429
Sp	-8430
▁neut	-8431
▁synd	-8432
94	-8433
▁1921	-8434
▁diagn	-8435
▁warning	-8436
▁practices	-8437
08	-8438
▁universities	-8439
▁guilty	-8440
▁dust	-8441
idel	-8442
▁license	-8443
▁matters	-8444
▁Kelly	-8445
ugg	-8446
SO	-8447
uction	-8448
▁promised	-8449
▁danger	-8450
▁classified	-8451
2009	-8452
▁blocks	-8453
▁eval	-8454
▁slipped	-8455
▁print	-8456
▁Sarah	-8457
ivated	-8458
oni	-8459
▁Psych	-8460
▁Malaysia	-8461
▁manage	-8462
died	-8463
▁palace	-8464
▁complic	-8465
▁Yan	-8466
▁heading	-8467
▁burst	-8468
pha	-8469
▁strategy	-8470
▁exposed	-8471
▁Convention	-8472
▁Legislative	-8473
▁Brothers	-8474
▁paus	-8475
▁Judge	-8476
▁Volume	-8477
bra	-8478
▁Ent	-8479
ighed	-8480
▁pron	-8481
annah	-8482
▁Hungarian	-8483
▁Kir	-8484
▁squadron	-8485
rov	-8486
▁Colomb	-8487
▁Rio	-8488
▁authors	-8489
▁Liverpool	-8490
▁guitarist	-8491
town	-8492
▁ownership	-8493
▁cock	-8494
abe	-8495
leton	-8496
break	-8497
▁wake	-8498
isd	-8499
top	-8500
▁manusc	-8501
mother	-8502
dy	-8503
▁Pur	-8504
▁Marie	-8505
▁overse	-8506
▁1925	-8507
▁mob	-8508
▁smell	-8509
▁Invest	-8510
▁ghost	-8511
emor	-8512
▁1912	-8513
acc	-8514
▁Pun	-8515
▁adapted	-8516
▁mask	-8517
▁fled	-8518
▁filed	-8519
ivia	-8520
▁Culture	-8521
▁tools	-8522
▁Dead	-8523
profit	-8524
▁approval	-8525
orted	-8526
▁fictional	-8527
merce	-8528
▁Saf	-8529
▁dynasty	-8530
▁Nav	-8531
low	-8532
▁1992,	-8533
▁submar	-8534
▁confused	-8535
▁Place	-8536
angle	-8537
▁medieval	-8538
▁offensive	-8539
▁debate	-8540
erg	-8541
▁scrap	-8542
fire	-8543
▁terr	-8544
▁Campbell	-8545
aman	-8546
▁nav	-8547
▁Nar	-8548
▁expedition	-8549
▁Lib	-8550
▁Hit	-8551
net	-8552
▁jumped	-8553
▁mirror	-8554
master	-8555
▁experiences	-8556
▁rounds	-8557
▁spiritual	-8558
tha	-8559
uj	-8560
▁vast	-8561
▁Lane	-8562
that	-8563
roc	-8564
lon	-8565
▁sufficient	-8566
▁coverage	-8567
▁Indonesia	-8568
▁Round	-8569
▁Daily	-8570
▁SR	-8571
56	-8572
▁processes	-8573
ymn	-8574
▁breat	-8575
▁increasingly	-8576
▁evolution	-8577
bach	-8578
IN	-8579
story	-8580
▁Ward	-8581
imp	-8582
ials	-8583
itals	-8584
leased	-8585
▁Singh	-8586
▁Dance	-8587
▁Yug	-8588
▁spell	-8589
ribed	-8590
▁affairs	-8591
▁clock	-8592
shaped	-8593
▁Fall	-8594
▁vessel	-8595
▁Hom	-8596
▁Ve	-8597
▁describe	-8598
▁peaked	-8599
inch	-8600
="0	-8601
▁McD	-8602
▁injuries	-8603
▁coastal	-8604
mates	-8605
▁43	-8606
▁1923	-8607
endment	-8608
▁Century	-8609
▁Chamber	-8610
gow	-8611
▁accounts	-8612
▁boss	-8613
▁Fel	-8614
▁cass	-8615
▁sounded	-8616
▁denied	-8617
▁indicate	-8618
▁lasted	-8619
▁suffering	-8620
▁Adams	-8621
▁shaking	-8622
▁bom	-8623
▁prove	-8624
prise	-8625
▁1993,	-8626
▁celebrated	-8627
eff	-8628
▁considerable	-8629
▁wolf	-8630
▁attracted	-8631
▁Pas	-8632
▁Works	-8633
▁components	-8634
▁swall	-8635
AN	-8636
lem	-8637
▁Wright	-8638
▁crack	-8639
leans	-8640
▁Medicine	-8641
▁Nelson	-8642
▁heritage	-8643
▁Obs	-8644
▁couples	-8645
▁detail	-8646
olid	-8647
▁Market	-8648
▁prince	-8649
▁smoke	-8650
▁Franklin	-8651
▁drugs	-8652
▁Michel	-8653
▁executed	-8654
called	-8655
▁memorial	-8656
ruption	-8657
▁Upper	-8658
▁Advent	-8659
▁Conservative	-8660
▁tact	-8661
▁hosts	-8662
ión	-8663
General	-8664
▁Pittsburgh	-8665
▁Norman	-8666
▁Thompson	-8667
59	-8668
▁Austin	-8669
▁replacing	-8670
▁Hell	-8671
▁1926	-8672
▁Tournament	-8673
mingham	-8674
▁appeal	-8675
▁illegal	-8676
▁Never	-8677
▁anch	-8678
▁gift	-8679
▁assembly	-8680
AP	-8681
▁vessels	-8682
rient	-8683
orer	-8684
▁les	-8685
▁proposal	-8686
ampton	-8687
▁publications	-8688
▁ninet	-8689
atern	-8690
▁busy	-8691
▁feels	-8692
▁declined	-8693
din	-8694
▁exha	-8695
astery	-8696
▁Mond	-8697
▁divisions	-8698
▁visiting	-8699
▁mode	-8700
▁movies	-8701
!"	-8702
▁occupation	-8703
fortun	-8704
▁truly	-8705
▁astron	-8706
ín	-8707
2011	-8708
estyle	-8709
ogs	-8710
▁crazy	-8711
▁SS	-8712
▁bell	-8713
icle	-8714
▁sentence	-8715
▁rocks	-8716
iture	-8717
listed	-8718
ivan	-8719
▁Scient	-8720
▁surviving	-8721
▁Again	-8722
▁tests	-8723
▁struggle	-8724
▁circumstances	-8725
▁fifty	-8726
▁throne	-8727
▁filmed	-8728
▁Obl	-8729
07	-8730
▁Meanwhile	-8731
▁panel	-8732
▁talked	-8733
▁nations	-8734
▁Natural	-8735
iege	-8736
▁monument	-8737
attan	-8738
▁competitions	-8739
sea	-8740
▁Gri	-8741
▁immediate	-8742
▁Orthodox	-8743
▁Gon	-8744
▁influential	-8745
▁driven	-8746
▁Champion	-8747
▁belonged	-8748
▁arc	-8749
▁DNA	-8750
▁Stanley	-8751
▁Cant	-8752
agger	-8753
▁Ukrainian	-8754
▁Nep	-8755
▁1990,	-8756
▁sisters	-8757
▁phr	-8758
▁gard	-8759
▁Agricult	-8760
person	-8761
▁avo	-8762
2004	-8763
▁1915	-8764
▁agents	-8765
▁flesh	-8766
▁Bangl	-8767
rastructure	-8768
▁Bed	-8769
ielder	-8770
idges	-8771
▁Non	-8772
ribute	-8773
seud	-8774
▁Our	-8775
▁criticism	-8776
▁obviously	-8777
▁1916	-8778
ED	-8779
inations	-8780
▁plastic	-8781
▁Energy	-8782
▁advice	-8783
▁Confeder	-8784
▁Gener	-8785
▁Tig	-8786
icing	-8787
▁breathing	-8788
▁monitor	-8789
zer	-8790
▁hook	-8791
▁losses	-8792
essions	-8793
ović	-8794
▁landscape	-8795
atus	-8796
▁chin	-8797
▁eliminated	-8798
▁spir	-8799
▁beer	-8800
asa	-8801
▁amongst	-8802
▁prohib	-8803
▁52	-8804
66	-8805
▁Alliance	-8806
chi	-8807
▁Cathedral	-8808
azed	-8809
▁AT	-8810
▁reun	-8811
▁recept	-8812
▁Arkansas	-8813
92	-8814
"|	-8815
▁Vik	-8816
pled	-8817
▁minimum	-8818
▁bottle	-8819
▁seriously	-8820
▁invent	-8821
bound	-8822
▁charts	-8823
▁Patri	-8824
geon	-8825
▁statue	-8826
▁personality	-8827
▁Carter	-8828
▁Glas	-8829
ovo	-8830
▁deaths	-8831
▁boundary	-8832
▁belt	-8833
▁markets	-8834
▁modified	-8835
▁drinking	-8836
▁remove	-8837
▁plain	-8838
▁Jose	-8839
▁Murray	-8840
▁uncom	-8841
▁printed	-8842
▁Comple	-8843
▁Morris	-8844
▁Gun	-8845
▁Lower	-8846
▁Robinson	-8847
▁dri	-8848
wall	-8849
▁Product	-8850
▁Equ	-8851
teenth	-8852
▁Originally	-8853
▁pric	-8854
▁twin	-8855
▁Rud	-8856
▁meetings	-8857
▁2:	-8858
▁battles	-8859
▁Nash	-8860
IP	-8861
uy	-8862
ucks	-8863
▁Bernard	-8864
sters	-8865
▁Metro	-8866
issue	-8867
▁waste	-8868
▁softly	-8869
umph	-8870
mi	-8871
▁Dallas	-8872
▁Broadway	-8873
▁suspic	-8874
udes	-8875
▁nurs	-8876
▁Maj	-8877
▁Ga	-8878
▁cm	-8879
amental	-8880
▁reinfor	-8881
▁soundtrack	-8882
▁Hispan	-8883
▁forty	-8884
▁Boys	-8885
▁alcohol	-8886
▁signing	-8887
▁memories	-8888
▁whilst	-8889
▁1991,	-8890
▁cave	-8891
MP	-8892
▁equipped	-8893
▁rig	-8894
▁portrayed	-8895
▁Jimmy	-8896
52	-8897
mus	-8898
▁Authority	-8899
OC	-8900
▁rivers	-8901
▁Kon	-8902
tra	-8903
uce	-8904
▁Chem	-8905
▁aimed	-8906
oly	-8907
▁Years	-8908
54	-8909
inction	-8910
▁Windows	-8911
icon	-8912
▁manufacturing	-8913
▁Cer	-8914
otype	-8915
▁absence	-8916
irts	-8917
▁tired	-8918
▁forests	-8919
▁tomorrow	-8920
▁cabinet	-8921
ayan	-8922
rama	-8923
▁Cole	-8924
▁Method	-8925
ultane	-8926
▁riding	-8927
▁Hend	-8928
▁cited	-8929
▁annually	-8930
▁Dak	-8931
▁Venez	-8932
▁circuit	-8933
?"	-8934
▁depending	-8935
▁Emer	-8936
jamin	-8937
▁restrict	-8938
▁stuck	-8939
▁description	-8940
▁Nazi	-8941
▁Lith	-8942
ancell	-8943
▁hate	-8944
▁jew	-8945
▁Economic	-8946
anean	-8947
▁underw	-8948
olds	-8949
▁Birmingham	-8950
rine	-8951
▁adopt	-8952
▁unlike	-8953
▁wire	-8954
▁crop	-8955
▁assemb	-8956
abilities	-8957
▁Row	-8958
▁vul	-8959
quis	-8960
▁customers	-8961
usalem	-8962
▁bull	-8963
▁adaptation	-8964
▁worship	-8965
▁Training	-8966
▁involvement	-8967
▁1890	-8968
acht	-8969
▁femin	-8970
▁easier	-8971
▁yard	-8972
▁Schools	-8973
▁Shan	-8974
▁Hungary	-8975
▁gal	-8976
▁Trade	-8977
▁effectively	-8978
▁completion	-8979
▁Billy	-8980
ricane	-8981
▁artistic	-8982
▁imagine	-8983
Man	-8984
igible	-8985
▁relie	-8986
▁Ins	-8987
▁frequency	-8988
▁Graham	-8989
▁grave	-8990
▁worn	-8991
▁helic	-8992
ulous	-8993
ré	-8994
63	-8995
▁suspended	-8996
▁Marshall	-8997
▁meat	-8998
▁recordings	-8999
▁waves	-9000
61	-9001
▁entertainment	-9002
▁discovery	-9003
▁fest	-9004
hu	-9005
▁random	-9006
▁penalty	-9007
umps	-9008
▁youngest	-9009
iors	-9010
▁qualifying	-9011
asha	-9012
▁Py	-9013
cut	-9014
rets	-9015
▁artillery	-9016
▁amateur	-9017
len	-9018
Is	-9019
▁seeking	-9020
▁Unlike	-9021
▁reven	-9022
▁commanded	-9023
▁gradually	-9024
▁hunting	-9025
▁passage	-9026
▁Chen	-9027
▁thats	-9028
▁pip	-9029
2003	-9030
▁colors	-9031
ashi	-9032
▁Champions	-9033
▁Norm	-9034
▁Bird	-9035
▁Ko	-9036
▁frust	-9037
▁nomination	-9038
abs	-9039
▁Kit	-9040
▁occasions	-9041
graduate	-9042
▁Admiral	-9043
▁patrol	-9044
You	-9045
aptist	-9046
▁blow	-9047
53	-9048
▁longest	-9049
▁destruction	-9050
uki	-9051
▁ceiling	-9052
▁repro	-9053
09	-9054
▁passion	-9055
estone	-9056
▁Priv	-9057
ouver	-9058
▁Dom	-9059
usk	-9060
cement	-9061
▁segment	-9062
itable	-9063
▁Finland	-9064
▁pushing	-9065
▁Brooklyn	-9066
▁seed	-9067
FM	-9068
▁medals	-9069
▁graduating	-9070
▁distinguished	-9071
lik	-9072
▁Father	-9073
onder	-9074
▁mounted	-9075
▁Yugosl	-9076
▁Rain	-9077
keeper	-9078
mo	-9079
▁surgery	-9080
pent	-9081
▁palm	-9082
2001	-9083
▁WW	-9084
alia	-9085
▁dub	-9086
▁compilation	-9087
▁considering	-9088
▁competing	-9089
▁Bomb	-9090
▁jurisd	-9091
▁Digital	-9092
▁greatly	-9093
▁knee	-9094
ugs	-9095
▁relationships	-9096
▁lieutenant	-9097
avan	-9098
▁negoti	-9099
ailand	-9100
▁volumes	-9101
ounsel	-9102
▁Ye	-9103
▁Wing	-9104
▁symp	-9105
88	-9106
▁horiz	-9107
iveness	-9108
▁cow	-9109
▁honour	-9110
▁Cass	-9111
▁Mort	-9112
▁marks	-9113
HS	-9114
▁innoc	-9115
▁prefer	-9116
theless	-9117
▁Init	-9118
▁Utah	-9119
▁guide	-9120
▁finals	-9121
fare	-9122
▁exists	-9123
aping	-9124
mina	-9125
▁shares	-9126
▁maintenance	-9127
▁Chand	-9128
▁satellite	-9129
▁Lud	-9130
▁schedule	-9131
▁escaped	-9132
▁talent	-9133
▁lists	-9134
oned	-9135
▁Vic	-9136
▁boats	-9137
▁moder	-9138
inging	-9139
oca	-9140
▁whereas	-9141
▁eighth	-9142
▁tribe	-9143
▁Note	-9144
▁intellect	-9145
▁3:	-9146
lines	-9147
51	-9148
2012	-9149
▁Unt	-9150
▁upset	-9151
▁audio	-9152
▁recovered	-9153
▁domain	-9154
▁Theater	-9155
▁vel	-9156
▁Guide	-9157
TS	-9158
opes	-9159
later	-9160
▁NBA	-9161
ewhere	-9162
▁Leban	-9163
▁photo	-9164
▁EU	-9165
▁Movement	-9166
▁reaches	-9167
cell	-9168
▁drunk	-9169
raig	-9170
bean	-9171
▁cul	-9172
uated	-9173
py	-9174
▁Broadcast	-9175
▁Mack	-9176
▁conscious	-9177
71	-9178
▁PA	-9179
rena	-9180
▁soccer	-9181
▁stable	-9182
▁cable	-9183
▁smiling	-9184
▁forever	-9185
▁interesting	-9186
▁CBS	-9187
mund	-9188
▁Gill	-9189
▁subsidi	-9190
▁missions	-9191
▁wides	-9192
olen	-9193
72	-9194
bn	-9195
▁Fleet	-9196
▁outer	-9197
▁birthday	-9198
én	-9199
▁jam	-9200
▁appropriate	-9201
▁1913	-9202
annels	-9203
▁Ald	-9204
▁newspapers	-9205
pat	-9206
▁Girls	-9207
▁counties	-9208
▁recre	-9209
▁ju	-9210
▁Gary	-9211
▁bent	-9212
▁1911	-9213
▁ward	-9214
▁confess	-9215
▁insurance	-9216
▁51	-9217
▁decline	-9218
▁Beck	-9219
▁Food	-9220
▁expensive	-9221
acts	-9222
you	-9223
▁1908	-9224
▁definition	-9225
▁sleeping	-9226
▁collections	-9227
▁thir	-9228
▁Indians	-9229
▁businessman	-9230
▁cabin	-9231
▁Rest	-9232
▁deeply	-9233
iterr	-9234
▁tub	-9235
▁discip	-9236
▁mrs	-9237
▁AP	-9238
▁strict	-9239
▁Motor	-9240
▁afterwards	-9241
▁wished	-9242
▁romantic	-9243
▁possession	-9244
aments	-9245
▁tea	-9246
▁Constant	-9247
GB	-9248
▁Dub	-9249
clop	-9250
vet	-9251
inea	-9252
mat	-9253
▁claiming	-9254
▁slight	-9255
▁discussion	-9256
soft	-9257
▁clar	-9258
▁swimming	-9259
inating	-9260
▁convinced	-9261
▁chapel	-9262
finals	-9263
▁extent	-9264
▁posted	-9265
▁indeed	-9266
▁dan	-9267
▁smart	-9268
▁Mi	-9269
▁Johnny	-9270
▁Capital	-9271
▁Nord	-9272
▁Along	-9273
▁collaps	-9274
▁NBC	-9275
▁departure	-9276
▁AR	-9277
▁dollars	-9278
ME	-9279
93	-9280
bles	-9281
▁pound	-9282
▁commemor	-9283
▁valid	-9284
uli	-9285
pread	-9286
▁remainder	-9287
▁Pierre	-9288
▁proport	-9289
▁controversial	-9290
▁identify	-9291
▁Victorian	-9292
▁Princip	-9293
▁Defence	-9294
anked	-9295
▁Collection	-9296
ridge	-9297
▁intersection	-9298
▁Athletic	-9299
oba	-9300
▁animated	-9301
▁behalf	-9302
▁draf	-9303
▁decisions	-9304
eria	-9305
▁suspect	-9306
ör	-9307
mentary	-9308
▁Rap	-9309
▁Seven	-9310
ipper	-9311
otes	-9312
▁Limited	-9313
▁intense	-9314
▁reco	-9315
▁output	-9316
oga	-9317
▁spaces	-9318
▁resolution	-9319
uda	-9320
▁bone	-9321
▁colony	-9322
▁Report	-9323
onian	-9324
anted	-9325
▁trading	-9326
elta	-9327
▁Jerusalem	-9328
▁infantry	-9329
▁recommended	-9330
2002	-9331
▁participation	-9332
irates	-9333
illo	-9334
▁Carib	-9335
▁Veg	-9336
oples	-9337
▁apply	-9338
▁loose	-9339
▁Carlos	-9340
▁encouraged	-9341
Cl	-9342
▁false	-9343
▁beet	-9344
▁nervous	-9345
▁victim	-9346
style	-9347
▁Ian	-9348
▁eating	-9349
▁Horn	-9350
▁Tower	-9351
▁Guy	-9352
▁illness	-9353
▁brow	-9354
▁Orleans	-9355
▁donated	-9356
idency	-9357
▁Prom	-9358
ichael	-9359
DS	-9360
▁1989,	-9361
▁dying	-9362
▁guests	-9363
▁Thailand	-9364
▁contem	-9365
▁Tol	-9366
itate	-9367
▁Carm	-9368
▁Hindu	-9369
▁Hampshire	-9370
▁Jun	-9371
▁versus	-9372
▁Delhi	-9373
gro	-9374
▁tempor	-9375
▁illustr	-9376
▁Wa	-9377
hers	-9378
▁lunch	-9379
▁Ship	-9380
▁listening	-9381
▁extreme	-9382
▁violent	-9383
▁1880	-9384
▁Jason	-9385
▁conj	-9386
▁strip	-9387
▁Nation	-9388
▁wars	-9389
▁acknowled	-9390
terior	-9391
▁angel	-9392
▁fighter	-9393
active	-9394
aceae	-9395
▁Ron	-9396
▁Player	-9397
▁permission	-9398
▁Aqu	-9399
▁cargo	-9400
▁Venezuel	-9401
iop	-9402
▁simpl	-9403
hill	-9404
awk	-9405
▁breast	-9406
▁Bible	-9407
▁Neb	-9408
present	-9409
archy	-9410
▁Within	-9411
▁Flore	-9412
▁bid	-9413
arted	-9414
abriel	-9415
▁1:	-9416
▁Mong	-9417
asi	-9418
▁thrust	-9419
▁grav	-9420
▁detailed	-9421
▁Benjamin	-9422
▁partially	-9423
▁Richmond	-9424
itual	-9425
ussian	-9426
udson	-9427
▁Glasgow	-9428
▁Cry	-9429
avi	-9430
▁Sax	-9431
▁perspect	-9432
eton	-9433
▁Cher	-9434
▁shopping	-9435
▁directors	-9436
▁Portland	-9437
▁salt	-9438
inted	-9439
▁Barry	-9440
ancouver	-9441
▁hiding	-9442
igrated	-9443
ensis	-9444
▁Rena	-9445
▁Hold	-9446
▁pier	-9447
▁bones	-9448
iciency	-9449
▁universe	-9450
▁Ni	-9451
▁orange	-9452
▁distract	-9453
▁Tan	-9454
opal	-9455
01	-9456
▁Mess	-9457
▁concentration	-9458
▁Protest	-9459
▁genre	-9460
▁external	-9461
";	-9462
▁dancing	-9463
▁supports	-9464
▁retreat	-9465
▁Oblast	-9466
osph	-9467
▁butter	-9468
▁admin	-9469
▁Evans	-9470
▁simultane	-9471
▁adults	-9472
▁roots	-9473
91	-9474
▁shoes	-9475
ologists	-9476
andal	-9477
▁blond	-9478
▁yield	-9479
▁argument	-9480
yler	-9481
▁DJ	-9482
▁Madrid	-9483
▁sugar	-9484
▁rarely	-9485
andy	-9486
▁120	-9487
▁videos	-9488
▁controversy	-9489
▁licensed	-9490
77	-9491
▁fool	-9492
▁orchestra	-9493
abil	-9494
▁poems	-9495
▁forehead	-9496
rose	-9497
05	-9498
▁horn	-9499
▁UE	-9500
▁exceed	-9501
▁Ivan	-9502
▁networks	-9503
▁benefits	-9504
▁Nam	-9505
▁merely	-9506
▁employment	-9507
▁Wrest	-9508
RS	-9509
orous	-9510
▁Romania	-9511
▁explan	-9512
bie	-9513
hattan	-9514
▁repair	-9515
▁classification	-9516
▁transportation	-9517
iterranean	-9518
▁Around	-9519
▁Eug	-9520
▁drum	-9521
uable	-9522
stairs	-9523
▁activist	-9524
eta	-9525
igs	-9526
▁jeans	-9527
mn	-9528
▁anywhere	-9529
▁gay	-9530
zi	-9531
▁cleared	-9532
▁persu	-9533
▁contribution	-9534
anç	-9535
▁representation	-9536
such	-9537
▁elevation	-9538
▁widespread	-9539
▁transform	-9540
▁opportunities	-9541
▁partly	-9542
▁creative	-9543
othy	-9544
▁bench	-9545
▁preserved	-9546
▁descent	-9547
▁electoral	-9548
▁murm	-9549
oard	-9550
▁attributed	-9551
arma	-9552
obi	-9553
enti	-9554
▁mic	-9555
uart	-9556
AA	-9557
▁corporate	-9558
▁kidn	-9559
▁raising	-9560
▁sweat	-9561
▁cann	-9562
ripts	-9563
▁associate	-9564
▁periods	-9565
ricted	-9566
▁Derby	-9567
▁Andy	-9568
▁kicked	-9569
▁Frances	-9570
tering	-9571
oenix	-9572
▁pod	-9573
▁ruling	-9574
▁Tak	-9575
▁championships	-9576
▁till	-9577
▁Event	-9578
fa	-9579
▁informed	-9580
itarian	-9581
▁nic	-9582
▁suspected	-9583
▁ma	-9584
▁excess	-9585
▁lift	-9586
gate	-9587
▁instrumental	-9588
▁leaf	-9589
▁extract	-9590
bat	-9591
▁cutting	-9592
▁dozen	-9593
▁erected	-9594
▁lung	-9595
▁Fitz	-9596
▁Belgian	-9597
▁diameter	-9598
▁marketing	-9599
▁Wayne	-9600
▁Warren	-9601
▁Political	-9602
▁thigh	-9603
▁inches	-9604
ported	-9605
▁scientists	-9606
▁discussed	-9607
rock	-9608
▁displayed	-9609
▁Yorkshire	-9610
▁Cart	-9611
▁Rico	-9612
▁Instead	-9613
anne	-9614
▁Canal	-9615
▁fier	-9616
four	-9617
▁forcing	-9618
▁gear	-9619
▁habitat	-9620
▁Sign	-9621
MC	-9622
▁commented	-9623
▁placing	-9624
2013	-9625
▁ell	-9626
ère	-9627
hour	-9628
▁rhythm	-9629
▁Heb	-9630
▁agencies	-9631
▁convention	-9632
▁attorney	-9633
▁cheeks	-9634
▁subur	-9635
▁latest	-9636
▁populations	-9637
▁Alice	-9638
▁processing	-9639
▁Bangladesh	-9640
▁Baker	-9641
▁Treaty	-9642
▁emotion	-9643
▁centers	-9644
ulum	-9645
▁synthes	-9646
▁architectural	-9647
▁Charlie	-9648
▁frequent	-9649
▁Milan	-9650
orporated	-9651
▁Cultural	-9652
ivation	-9653
istical	-9654
▁debt	-9655
▁repr	-9656
▁releases	-9657
▁Mitchell	-9658
oric	-9659
▁frown	-9660
▁ratio	-9661
▁Bes	-9662
amo	-9663
▁charity	-9664
closed	-9665
▁merchant	-9666
▁venue	-9667
▁attending	-9668
▁anticip	-9669
▁woods	-9670
▁ranks	-9671
▁phenomen	-9672
▁Hig	-9673
▁Jazz	-9674
▁noble	-9675
▁controll	-9676
ointed	-9677
▁viewed	-9678
dist	-9679
final	-9680
arting	-9681
▁els	-9682
▁sentenced	-9683
▁shower	-9684
▁thumb	-9685
▁Fellow	-9686
▁Season	-9687
▁ive	-9688
▁Clar	-9689
▁fasc	-9690
folk	-9691
▁Kan	-9692
▁demolished	-9693
▁vampires	-9694
lee	-9695
▁Songs	-9696
▁ceased	-9697
▁advertising	-9698
arks	-9699
▁writes	-9700
▁agriculture	-9701
▁grip	-9702
▁Egyptian	-9703
▁knocked	-9704
▁gon	-9705
▁py	-9706
▁mood	-9707
▁secured	-9708
alph	-9709
▁Vancouver	-9710
iri	-9711
▁SC	-9712
▁Ric	-9713
ulu	-9714
▁Nev	-9715
06	-9716
▁percentage	-9717
▁defending	-9718
apse	-9719
▁sang	-9720
▁channels	-9721
▁induct	-9722
▁Lithuan	-9723
▁tribut	-9724
uits	-9725
▁Nicholas	-9726
iration	-9727
▁Has	-9728
▁superior	-9729
▁Gray	-9730
ijing	-9731
borne	-9732
vere	-9733
ulus	-9734
▁electron	-9735
▁Fine	-9736
▁electrical	-9737
▁runner	-9738
▁err	-9739
▁tool	-9740
▁Assistant	-9741
▁voting	-9742
▁Trump	-9743
▁wer	-9744
▁param	-9745
▁worksh	-9746
▁producers	-9747
antine	-9748
ML	-9749
▁concerts	-9750
▁Mars	-9751
▁overs	-9752
▁Bey	-9753
▁glance	-9754
▁innings	-9755
▁terminal	-9756
ourse	-9757
▁infrastructure	-9758
▁hen	-9759
▁Maine	-9760
▁fabric	-9761
idal	-9762
arth	-9763
esty	-9764
▁themes	-9765
▁substantial	-9766
▁Late	-9767
nia	-9768
occ	-9769
▁FIFA	-9770
rat	-9771
▁solar	-9772
74	-9773
fish	-9774
▁partners	-9775
▁climbed	-9776
▁operational	-9777
▁stronger	-9778
▁tribes	-9779
prene	-9780
▁Luther	-9781
acre	-9782
▁tent	-9783
▁ranking	-9784
GA	-9785
atabase	-9786
▁transmission	-9787
▁Shortly	-9788
▁pants	-9789
high	-9790
lett	-9791
▁recommend	-9792
▁Pil	-9793
ront	-9794
▁adm	-9795
▁Box	-9796
▁rolling	-9797
▁electricity	-9798
iph	-9799
▁voices	-9800
▁54	-9801
▁Basketball	-9802
reprene	-9803
▁urg	-9804
▁preferred	-9805
▁predecess	-9806
▁Fab	-9807
▁characteristics	-9808
▁wondering	-9809
▁wip	-9810
▁texts	-9811
▁lou	-9812
▁Mans	-9813
▁1906	-9814
▁Anc	-9815
▁parliamentary	-9816
▁opponent	-9817
▁governments	-9818
▁competitive	-9819
▁couch	-9820
▁Afghanistan	-9821
▁Get	-9822
oves	-9823
hum	-9824
▁aunt	-9825
▁participants	-9826
ES	-9827
▁Organization	-9828
▁Finnish	-9829
▁representatives	-9830
aton	-9831
riptions	-9832
ogle	-9833
▁eggs	-9834
▁milit	-9835
▁supporters	-9836
▁serial	-9837
▁emperor	-9838
▁1905	-9839
▁58	-9840
onymous	-9841
▁abroad	-9842
▁Language	-9843
▁withdrew	-9844
▁mathematics	-9845
▁Trophy	-9846
▁Mall	-9847
▁murdered	-9848
▁Barbara	-9849
▁surve	-9850
xual	-9851
yes	-9852
ref	-9853
▁acquis	-9854
▁sin	-9855
▁abuse	-9856
▁civilian	-9857
▁decides	-9858
▁Verm	-9859
minute	-9860
▁searching	-9861
▁foss	-9862
▁Comics	-9863
▁nod	-9864
▁Edition	-9865
emed	-9866
▁Case	-9867
ensively	-9868
▁wick	-9869
▁Woman	-9870
appy	-9871
▁thrown	-9872
▁photographs	-9873
▁contested	-9874
Ph	-9875
▁Commissioner	-9876
▁helps	-9877
▁conclusion	-9878
▁Ple	-9879
afe	-9880
▁badly	-9881
▁Living	-9882
via	-9883
//	-9884
▁cemetery	-9885
▁compound	-9886
ancellor	-9887
▁guar	-9888
▁dual	-9889
▁rush	-9890
▁arrangement	-9891
▁Warner	-9892
▁funeral	-9893
▁traded	-9894
endar	-9895
eping	-9896
isting	-9897
▁limits	-9898
▁Mother	-9899
isb	-9900
sec	-9901
▁Exper	-9902
▁ris	-9903
▁harder	-9904
▁broadcasting	-9905
iko	-9906
Ne	-9907
▁Romanian	-9908
▁butt	-9909
▁clay	-9910
▁gods	-9911
▁neuro	-9912
▁Video	-9913
▁enthus	-9914
▁territories	-9915
▁attempting	-9916
▁Freedom	-9917
▁1907	-9918
unct	-9919
▁dogs	-9920
ationally	-9921
▁component	-9922
▁borders	-9923
▁Mediterranean	-9924
▁definitely	-9925
mod	-9926
▁regime	-9927
▁rebuilt	-9928
▁Symphony	-9929
1990	-9930
▁continu	-9931
▁button	-9932
▁defence	-9933
▁sigh	-9934
73	-9935
▁duo	-9936
▁scent	-9937
▁afford	-9938
▁Harrison	-9939
aws	-9940
emble	-9941
▁Goth	-9942
▁Jonathan	-9943
eing	-9944
▁Tob	-9945
▁links	-9946
▁Standard	-9947
agged	-9948
▁integrated	-9949
▁1987,	-9950
▁earthqu	-9951
cia	-9952
▁predomin	-9953
redited	-9954
▁ha	-9955
atin	-9956
▁Mak	-9957
▁emotional	-9958
CD	-9959
▁experimental	-9960
▁Bristol	-9961
▁remote	-9962
▁index	-9963
▁stops	-9964
fly	-9965
▁Germans	-9966
▁Control	-9967
▁dominated	-9968
▁discont	-9969
▁unn	-9970
▁Communications	-9971
▁poison	-9972
▁Parker	-9973
▁Jenn	-9974
▁believes	-9975
▁1988,	-9976
▁girlfriend	-9977
▁Steel	-9978
▁53	-9979
▁milk	-9980
addy	-9981
owski	-9982
▁platforms	-9983
▁anx	-9984
▁doesn	-9985
▁exit	-9986
▁publicly	-9987
▁Griff	-9988
▁muscles	-9989
▁Former	-9990
▁enemies	-9991
gregation	-9992
etta	-9993
rehensive	-9994
▁laughing	-9995
Ind	-9996
▁Hispanic	-9997
▁dismissed	-9998
▁assets	-9999
▁uncertain	-10000
▁judges	-10001
stance	-10002
▁Mind	-10003
▁backing	-10004
▁heir	-10005
▁Soon	-10006
▁patterns	-10007
▁Ref	-10008
▁comfortable	-10009
▁Electric	-10010
▁creature	-10011
▁Vel	-10012
▁corrid	-10013
▁produces	-10014
ictionary	-10015
▁Rabb	-10016
▁Orange	-10017
▁Such	-10018
▁Pad	-10019
▁Section	-10020
pop	-10021
▁Muhammad	-10022
▁principles	-10023
▁reportedly	-10024
OM	-10025
▁pant	-10026
▁assum	-10027
two	-10028
▁1909	-10029
▁Serge	-10030
quir	-10031
ennial	-10032
▁anne	-10033
riers	-10034
agre	-10035
▁photos	-10036
▁Construction	-10037
2014	-10038
▁Cricket	-10039
▁layer	-10040
elia	-10041
▁highlight	-10042
▁181	-10043
▁span	-10044
▁constitution	-10045
▁gam	-10046
agers	-10047
▁recognize	-10048
▁dreams	-10049
No	-10050
▁emotions	-10051
▁overw	-10052
▁Kil	-10053
▁Kum	-10054
ocation	-10055
▁patron	-10056
▁Vers	-10057
ibilities	-10058
▁machines	-10059
▁connecting	-10060
▁Clare	-10061
sis	-10062
▁styles	-10063
▁steady	-10064
▁Full	-10065
▁Dh	-10066
▁Urban	-10067
▁Salv	-10068
▁struggled	-10069
▁drivers	-10070
bes	-10071
▁Hunter	-10072
▁toured	-10073
▁fitted	-10074
azines	-10075
▁sponsored	-10076
▁hills	-10077
arrass	-10078
▁nearest	-10079
▁surviv	-10080
onds	-10081
▁facil	-10082
▁credits	-10083
▁Unit	-10084
▁snapped	-10085
▁locality	-10086
gorith	-10087
▁practical	-10088
etch	-10089
rawn	-10090
▁embr	-10091
five	-10092
▁unw	-10093
▁communications	-10094
Tr	-10095
▁rect	-10096
▁bacter	-10097
▁junction	-10098
▁explo	-10099
oren	-10100
▁categories	-10101
▁rifle	-10102
castle	-10103
▁Mult	-10104
ean	-10105
▁Hawaii	-10106
▁jacket	-10107
▁Bachelor	-10108
▁viewers	-10109
▁ritual	-10110
annon	-10111
zes	-10112
▁premiere	-10113
commun	-10114
▁Wang	-10115
▁Spirit	-10116
▁Sid	-10117
▁desert	-10118
asted	-10119
▁Ze	-10120
oop	-10121
▁blade	-10122
iler	-10123
▁Sultan	-10124
▁Commons	-10125
▁rushed	-10126
▁Lanka	-10127
▁Gran	-10128
▁Charlotte	-10129
▁Caribbean	-10130
ethe	-10131
▁Branch	-10132
ygen	-10133
▁Oliver	-10134
▁golf	-10135
▁eldest	-10136
▁Antar	-10137
urse	-10138
▁Systems	-10139
igo	-10140
fielder	-10141
▁relocated	-10142
04	-10143
eters	-10144
▁demanded	-10145
▁backed	-10146
▁Tib	-10147
▁mail	-10148
▁crimes	-10149
berry	-10150
://	-10151
▁Arena	-10152
▁conservative	-10153
BM	-10154
▁characterized	-10155
▁Wol	-10156
hibition	-10157
▁throwing	-10158
astian	-10159
ON	-10160
▁profit	-10161
1999	-10162
▁imperial	-10163
▁sir	-10164
▁sne	-10165
▁1986,	-10166
ephew	-10167
▁prosp	-10168
▁UEFA	-10169
stad	-10170
▁Clinton	-10171
▁Josh	-10172
▁angle	-10173
▁pace	-10174
▁researchers	-10175
▁Ess	-10176
▁pregnant	-10177
▁tug	-10178
▁Small	-10179
▁Collins	-10180
▁Chel	-10181
icting	-10182
▁Fem	-10183
▁indigenous	-10184
abet	-10185
▁Lloyd	-10186
▁reveals	-10187
▁totally	-10188
▁manif	-10189
▁Draft	-10190
nik	-10191
▁Falls	-10192
scar	-10193
▁shrug	-10194
▁compens	-10195
▁1870	-10196
nda	-10197
▁Isa	-10198
▁Voiv	-10199
▁Storm	-10200
▁Archbishop	-10201
▁hunter	-10202
▁essential	-10203
▁Manhattan	-10204
away	-10205
▁paused	-10206
▁pursue	-10207
▁Racing	-10208
▁requested	-10209
▁Grey	-10210
ucker	-10211
▁Notable	-10212
▁craw	-10213
▁Serbian	-10214
▁internet	-10215
▁Tele	-10216
▁Fisher	-10217
▁Policy	-10218
▁Parish	-10219
▁Zone	-10220
rage	-10221
▁1904	-10222
▁hips	-10223
▁tenure	-10224
▁alliance	-10225
▁careful	-10226
▁staying	-10227
▁Nova	-10228
▁1000	-10229
ked	-10230
bird	-10231
▁exercise	-10232
▁Beijing	-10233
▁interpre	-10234
▁sung	-10235
▁cream	-10236
▁Face	-10237
▁vulner	-10238
▁Monte	-10239
▁arrive	-10240
▁Blood	-10241
▁sustain	-10242
power	-10243
▁comed	-10244
▁slave	-10245
03	-10246
▁Studio	-10247
▁trick	-10248
▁relation	-10249
▁figured	-10250
▁VI	-10251
▁Bra	-10252
▁delivery	-10253
▁Lad	-10254
▁bars	-10255
▁stim	-10256
▁funded	-10257
▁happens	-10258
▁endemic	-10259
▁sharing	-10260
▁suitable	-10261
NC	-10262
▁earning	-10263
▁Stre	-10264
▁restoration	-10265
rified	-10266
▁Rangers	-10267
▁joy	-10268
▁clan	-10269
▁Disc	-10270
▁Arabic	-10271
uis	-10272
▁NHL	-10273
inental	-10274
fortunately	-10275
▁Lead	-10276
▁winds	-10277
▁isolated	-10278
feld	-10279
SW	-10280
▁migr	-10281
▁trend	-10282
▁deeper	-10283
▁CP	-10284
▁Alt	-10285
▁generated	-10286
▁opponents	-10287
▁margin	-10288
▁wealthy	-10289
wright	-10290
ido	-10291
▁deployed	-10292
omas	-10293
immer	-10294
▁ninth	-10295
fam	-10296
▁naked	-10297
▁chronic	-10298
▁cad	-10299
▁operator	-10300
▁timber	-10301
▁intellectual	-10302
▁affiliated	-10303
▁spl	-10304
fan	-10305
▁Similar	-10306
▁reass	-10307
orious	-10308
▁Fact	-10309
▁provision	-10310
lims	-10311
▁Vlad	-10312
▁mechanical	-10313
▁involves	-10314
▁embarrass	-10315
erbai	-10316
rob	-10317
▁Blues	-10318
▁congress	-10319
▁Adela	-10320
▁indicates	-10321
sa	-10322
roph	-10323
▁stare	-10324
rieved	-10325
onies	-10326
▁Sr	-10327
▁overwhel	-10328
This	-10329
▁liberal	-10330
▁conservation	-10331
▁Kirk	-10332
▁Attorney	-10333
▁Until	-10334
fers	-10335
▁farmers	-10336
▁stem	-10337
▁Action	-10338
▁Saints	-10339
▁hallway	-10340
▁Benn	-10341
2015	-10342
▁identical	-10343
uka	-10344
▁Tag	-10345
▁diver	-10346
▁Fant	-10347
▁CA	-10348
▁Serbia	-10349
▁perce	-10350
▁deliber	-10351
▁fate	-10352
vor	-10353
▁Stars	-10354
▁ethan	-10355
▁cig	-10356
▁Baptist	-10357
▁Nigeria	-10358
▁Theod	-10359
iev	-10360
▁Buck	-10361
▁mini	-10362
▁lowest	-10363
▁Contemporary	-10364
▁Schol	-10365
ds	-10366
▁concerning	-10367
▁thinks	-10368
▁Tun	-10369
▁sheet	-10370
▁Friday	-10371
care	-10372
odeship	-10373
▁Ice	-10374
essa	-10375
▁ideal	-10376
▁1,000	-10377
sed	-10378
▁accord	-10379
▁echo	-10380
center	-10381
▁proof	-10382
▁evac	-10383
aja	-10384
▁subsidiary	-10385
Am	-10386
▁organised	-10387
▁fra	-10388
osoph	-10389
▁Universal	-10390
▁steep	-10391
▁ta	-10392
isp	-10393
▁reception	-10394
▁gran	-10395
▁conven	-10396
agar	-10397
SE	-10398
ifies	-10399
sterdam	-10400
▁Tu	-10401
▁subt	-10402
▁mines	-10403
▁sailed	-10404
▁distant	-10405
▁56	-10406
▁recalled	-10407
making	-10408
boards	-10409
▁Students	-10410
▁principle	-10411
▁Turner	-10412
▁instant	-10413
▁sculpture	-10414
▁housed	-10415
▁ignored	-10416
▁1901	-10417
TE	-10418
▁sessions	-10419
▁1985,	-10420
▁implemented	-10421
formance	-10422
umble	-10423
▁Apple	-10424
▁Guinea	-10425
▁reluct	-10426
scale	-10427
02	-10428
▁Gor	-10429
▁drums	-10430
▁Minor	-10431
assy	-10432
▁Esc	-10433
▁bra	-10434
▁proud	-10435
eras	-10436
urers	-10437
▁Wes	-10438
maker	-10439
imir	-10440
▁Persian	-10441
jab	-10442
▁hey	-10443
ictions	-10444
▁alien	-10445
▁dealing	-10446
▁Jama	-10447
▁YouT	-10448
▁cattle	-10449
▁elsewhere	-10450
▁Vas	-10451
▁Fif	-10452
▁condem	-10453
looking	-10454
▁reporter	-10455
▁wider	-10456
▁2020,	-10457
▁continuous	-10458
▁switched	-10459
▁stair	-10460
▁genetic	-10461
was	-10462
ixon	-10463
iper	-10464
▁muscle	-10465
trans	-10466
▁Bengal	-10467
▁Hudson	-10468
▁Trinity	-10469
▁Ult	-10470
rand	-10471
▁Soul	-10472
▁camps	-10473
ded	-10474
▁tanks	-10475
▁suburb	-10476
▁Voivodeship	-10477
▁drafted	-10478
▁belonging	-10479
DF	-10480
▁slaves	-10481
82	-10482
▁RAF	-10483
▁LP	-10484
▁inaugural	-10485
▁chase	-10486
▁1903	-10487
▁Herbert	-10488
▁Having	-10489
▁Greater	-10490
▁settlers	-10491
ierra	-10492
▁Much	-10493
SU	-10494
▁Doc	-10495
▁gross	-10496
▁provinces	-10497
ags	-10498
▁devoted	-10499
▁excellent	-10500
▁Princ	-10501
roid	-10502
▁Trail	-10503
All	-10504
anche	-10505
▁cro	-10506
▁tension	-10507
▁Hugh	-10508
▁sink	-10509
▁Wor	-10510
▁jail	-10511
▁Bour	-10512
abel	-10513
achment	-10514
▁Azerbai	-10515
▁ties	-10516
▁affair	-10517
omon	-10518
▁MA	-10519
▁Abbey	-10520
▁happening	-10521
▁nights	-10522
iya	-10523
▁increases	-10524
▁Tang	-10525
▁flex	-10526
▁physics	-10527
uin	-10528
▁Byz	-10529
elfare	-10530
▁Kap	-10531
▁atmosphere	-10532
▁skull	-10533
▁focuses	-10534
winning	-10535
boat	-10536
▁Prop	-10537
▁Pow	-10538
▁cancelled	-10539
Eng	-10540
▁excav	-10541
▁load	-10542
wer	-10543
▁Cob	-10544
▁drummer	-10545
▁dragon	-10546
cribed	-10547
▁locally	-10548
▁Craig	-10549
▁twisted	-10550
oding	-10551
▁rated	-10552
works	-10553
▁upgr	-10554
celona	-10555
▁tons	-10556
▁exclusively	-10557
Star	-10558
▁options	-10559
▁Catherine	-10560
▁perfectly	-10561
▁immigrants	-10562
▁apolog	-10563
eston	-10564
▁Phot	-10565
▁reminded	-10566
▁sample	-10567
atto	-10568
▁fulf	-10569
▁luck	-10570
eo	-10571
▁Cou	-10572
▁nut	-10573
▁mechanism	-10574
▁leaning	-10575
incinn	-10576
▁aboard	-10577
▁Members	-10578
▁Alaska	-10579
fecture	-10580
89	-10581
▁establishing	-10582
▁ongoing	-10583
▁sympt	-10584
▁zero	-10585
▁Conserv	-10586
olia	-10587
aha	-10588
olve	-10589
▁Jerry	-10590
▁Vincent	-10591
▁chick	-10592
▁acceler	-10593
▁Sig	-10594
▁scared	-10595
▁revenue	-10596
▁magazines	-10597
arrison	-10598
izer	-10599
▁Thor	-10600
song	-10601
▁connections	-10602
▁1945,	-10603
▁algorith	-10604
▁Shel	-10605
uez	-10606
▁Cuba	-10607
▁challen	-10608
▁qualify	-10609
formerly	-10610
essed	-10611
▁abst	-10612
▁muttered	-10613
▁james	-10614
auge	-10615
▁overt	-10616
▁libr	-10617
resident	-10618
▁photographer	-10619
▁Winn	-10620
▁Adelaide	-10621
▁initiative	-10622
adition	-10623
▁Pont	-10624
aran	-10625
elected	-10626
▁caps	-10627
aco	-10628
▁scholarship	-10629
▁scientist	-10630
▁squeez	-10631
▁prest	-10632
expected	-10633
dess	-10634
▁Merc	-10635
itime	-10636
▁Munich	-10637
▁Support	-10638
▁Broadcasting	-10639
▁Iranian	-10640
▁lowered	-10641
▁convicted	-10642
inked	-10643
▁une	-10644
uru	-10645
▁folded	-10646
▁completing	-10647
▁root	-10648
▁assisted	-10649
▁coinc	-10650
▁recipient	-10651
▁1902	-10652
▁Cad	-10653
▁efficient	-10654
▁voters	-10655
keley	-10656
▁jury	-10657
rain	-10658
opy	-10659
▁venture	-10660
▁rebell	-10661
lights	-10662
▁Together	-10663
▁merger	-10664
lessly	-10665
▁Kos	-10666
▁boundaries	-10667
incinnati	-10668
▁Magn	-10669
▁tape	-10670
▁demonstrated	-10671
▁decorated	-10672
incorporated	-10673
▁traveling	-10674
front	-10675
▁Bron	-10676
▁honey	-10677
▁Allied	-10678
▁manip	-10679
▁YouTube	-10680
1998	-10681
▁Stevens	-10682
▁IC	-10683
▁Literature	-10684
▁detect	-10685
game	-10686
▁gallery	-10687
gam	-10688
▁dirt	-10689
▁borough	-10690
▁Pant	-10691
▁paying	-10692
▁editions	-10693
▁Know	-10694
▁nest	-10695
▁confusion	-10696
▁therm	-10697
▁coalition	-10698
▁initiated	-10699
▁fairly	-10700
▁Brand	-10701
▁stones	-10702
arus	-10703
ixed	-10704
▁treaty	-10705
▁Airl	-10706
▁Peninsula	-10707
oustic	-10708
▁adjust	-10709
▁dominant	-10710
▁Net	-10711
gon	-10712
▁66	-10713
▁files	-10714
▁greet	-10715
sson	-10716
▁neutral	-10717
osaur	-10718
▁1984,	-10719
▁Glen	-10720
▁diverse	-10721
sequently	-10722
▁portrait	-10723
▁stun	-10724
▁managing	-10725
wig	-10726
▁Near	-10727
▁arriving	-10728
▁battery	-10729
▁turb	-10730
▁Initially	-10731
▁wouldnt	-10732
▁nephew	-10733
▁rever	-10734
▁Seb	-10735
▁Model	-10736
▁Hem	-10737
▁ticket	-10738
wed	-10739
▁touring	-10740
▁strategic	-10741
▁copper	-10742
▁terminus	-10743
▁regulations	-10744
▁hated	-10745
▁jerk	-10746
▁Phoenix	-10747
▁Microsoft	-10748
▁physician	-10749
▁Grade	-10750
angular	-10751
▁Din	-10752
▁grows	-10753
▁nam	-10754
acles	-10755
▁hyper	-10756
free	-10757
Re	-10758
▁Syria	-10759
▁Challenge	-10760
▁mos	-10761
▁Flight	-10762
▁Socialist	-10763
▁execution	-10764
▁Plant	-10765
▁Philippine	-10766
▁shadows	-10767
▁traditions	-10768
▁Terry	-10769
▁alarm	-10770
▁breakfast	-10771
▁Industry	-10772
▁mit	-10773
▁Joy	-10774
▁wrist	-10775
▁Nat	-10776
kov	-10777
▁opens	-10778
▁banned	-10779
▁holiday	-10780
▁1980,	-10781
▁awareness	-10782
▁honorary	-10783
▁Throughout	-10784
upt	-10785
▁ber	-10786
umbent	-10787
▁reveal	-10788
▁wrestling	-10789
▁substitute	-10790
brid	-10791
▁Dakota	-10792
▁Cold	-10793
▁labour	-10794
▁ordinary	-10795
tic	-10796
▁Steven	-10797
holm	-10798
▁Anglo	-10799
▁athletes	-10800
▁182	-10801
▁barrel	-10802
▁Clay	-10803
▁aqu	-10804
beat	-10805
▁ages	-10806
▁Pictures	-10807
gas	-10808
▁dispute	-10809
▁Diam	-10810
▁manufacturer	-10811
▁outstanding	-10812
ortion	-10813
venth	-10814
▁Lis	-10815
▁prepare	-10816
▁Cond	-10817
▁shops	-10818
▁gif	-10819
utely	-10820
lected	-10821
▁Type	-10822
▁unsuccessful	-10823
▁stake	-10824
▁config	-10825
▁abilities	-10826
▁Nature	-10827
avier	-10828
nan	-10829
▁pray	-10830
▁Snow	-10831
▁monastery	-10832
▁implementation	-10833
▁jet	-10834
1997	-10835
▁biological	-10836
▁$4	-10837
omic	-10838
▁Alberta	-10839
bul	-10840
atched	-10841
▁asleep	-10842
▁flights	-10843
▁Code	-10844
language	-10845
▁respective	-10846
▁Qual	-10847
▁subd	-10848
▁Singles	-10849
▁AA	-10850
▁Maced	-10851
▁Rot	-10852
▁confidence	-10853
▁minority	-10854
vision	-10855
87	-10856
▁Dog	-10857
▁Eston	-10858
▁faint	-10859
tar	-10860
▁buck	-10861
▁Malt	-10862
▁hitting	-10863
▁600	-10864
▁Hamb	-10865
▁Pay	-10866
▁jake	-10867
▁Territory	-10868
▁Ug	-10869
▁loop	-10870
arat	-10871
▁tables	-10872
eli	-10873
▁Latino	-10874
▁forgotten	-10875
MI	-10876
type	-10877
▁Classic	-10878
▁Barcelona	-10879
▁Insp	-10880
▁Legend	-10881
ificial	-10882
▁phrase	-10883
▁reduction	-10884
▁shake	-10885
▁Stri	-10886
▁jurisdiction	-10887
▁manufactured	-10888
▁submitted	-10889
▁57	-10890
legiate	-10891
▁radical	-10892
▁shots	-10893
rez	-10894
▁perspective	-10895
▁Bert	-10896
oker	-10897
▁Fell	-10898
released	-10899
▁Peru	-10900
▁protests	-10901
▁Yale	-10902
amese	-10903
▁Bot	-10904
▁interviews	-10905
▁Herman	-10906
▁Esp	-10907
▁significance	-10908
▁Industrial	-10909
▁Buffalo	-10910
▁mistake	-10911
▁Mason	-10912
achi	-10913
May	-10914
▁cha	-10915
▁agg	-10916
▁tested	-10917
▁maps	-10918
▁clinical	-10919
▁trials	-10920
▁Therefore	-10921
aku	-10922
ussion	-10923
▁Tigers	-10924
▁departed	-10925
▁fee	-10926
▁Robin	-10927
▁preparation	-10928
bus	-10929
▁thereafter	-10930
▁boyfriend	-10931
Mus	-10932
itis	-10933
gi	-10934
▁1860	-10935
rien	-10936
▁Lear	-10937
84	-10938
▁Ring	-10939
▁crashed	-10940
▁Ja	-10941
▁Athens	-10942
▁Amsterdam	-10943
LS	-10944
avor	-10945
▁Toy	-10946
▁originated	-10947
enberg	-10948
▁stretched	-10949
▁Kath	-10950
La	-10951
▁Pack	-10952
▁lux	-10953
▁hardly	-10954
▁battalion	-10955
▁orn	-10956
▁cyl	-10957
▁client	-10958
▁closest	-10959
vol	-10960
▁origins	-10961
▁discontin	-10962
▁Camb	-10963
▁matt	-10964
▁grandmother	-10965
▁Pin	-10966
▁spots	-10967
▁charter	-10968
▁inch	-10969
▁bullet	-10970
▁speaker	-10971
▁Hope	-10972
▁marsh	-10973
▁Cincinnati	-10974
▁transmit	-10975
▁travelled	-10976
▁Keith	-10977
West	-10978
▁lun	-10979
anim	-10980
▁masc	-10981
▁belongs	-10982
▁alter	-10983
▁moral	-10984
▁violin	-10985
▁explains	-10986
aris	-10987
▁carries	-10988
▁Speed	-10989
▁rabb	-10990
▁Wrestling	-10991
▁keys	-10992
▁Ground	-10993
▁scores	-10994
▁Hebrew	-10995
▁Burg	-10996
▁visits	-10997
▁Yang	-10998
▁doorway	-10999
▁Muslims	-11000
▁Barn	-11001
▁friendship	-11002
aba	-11003
azon	-11004
▁bigger	-11005
hent	-11006
▁organis	-11007
ET	-11008
▁Gmina	-11009
erek	-11010
▁Pradesh	-11011
lia	-11012
▁Rogers	-11013
▁dism	-11014
▁Coal	-11015
▁Ferr	-11016
▁Diocese	-11017
▁lingu	-11018
oi	-11019
▁fault	-11020
▁raw	-11021
idad	-11022
▁eligible	-11023
▁Harold	-11024
anni	-11025
left	-11026
▁temperatures	-11027
▁Luis	-11028
▁stolen	-11029
▁disaster	-11030
atar	-11031
▁Jefferson	-11032
▁sixteen	-11033
▁depression	-11034
agonist	-11035
▁pap	-11036
▁conventional	-11037
▁Dragon	-11038
▁register	-11039
▁powered	-11040
▁Got	-11041
▁Race	-11042
▁elabor	-11043
▁1982,	-11044
▁photography	-11045
▁bin	-11046
▁Ord	-11047
▁measured	-11048
olition	-11049
▁accompany	-11050
cht	-11051
▁Buch	-11052
▁quar	-11053
▁Lag	-11054
▁Representative	-11055
▁gap	-11056
▁interrupted	-11057
▁linear	-11058
▁simultaneously	-11059
amped	-11060
▁prices	-11061
▁acres	-11062
mediate	-11063
strong	-11064
▁Fam	-11065
▁demands	-11066
▁talks	-11067
▁classroom	-11068
▁59	-11069
iffs	-11070
inda	-11071
▁1983,	-11072
▁recognised	-11073
▁insisted	-11074
▁reflected	-11075
▁rip	-11076
▁Ce	-11077
▁overseas	-11078
▁thirteen	-11079
▁describing	-11080
rav	-11081
▁instantly	-11082
otal	-11083
▁difficulty	-11084
▁sighed	-11085
▁Provinc	-11086
▁Furthermore	-11087
isbane	-11088
▁extend	-11089
enos	-11090
celand	-11091
▁Springs	-11092
▁swept	-11093
PR	-11094
▁cruc	-11095
▁Sad	-11096
▁propag	-11097
▁pupils	-11098
covered	-11099
▁bowl	-11100
izard	-11101
▁Municipal	-11102
▁industries	-11103
▁Had	-11104
▁1898	-11105
astrop	-11106
DC	-11107
▁Perry	-11108
quarter	-11109
▁Masters	-11110
▁Len	-11111
▁bases	-11112
ubs	-11113
EA	-11114
▁outbreak	-11115
▁peoples	-11116
iji	-11117
▁coaching	-11118
list	-11119
▁internationally	-11120
▁Curt	-11121
child	-11122
▁Norfolk	-11123
▁skill	-11124
pol	-11125
▁vertical	-11126
▁inherited	-11127
▁negotiations	-11128
aft	-11129
▁coins	-11130
▁oblig	-11131
iza	-11132
▁eyeb	-11133
▁brings	-11134
▁Ton	-11135
▁Brisbane	-11136
▁confront	-11137
▁scen	-11138
his	-11139
▁exposure	-11140
▁borrow	-11141
▁traditionally	-11142
▁Stra	-11143
▁canal	-11144
▁Celt	-11145
▁constitutional	-11146
▁tribute	-11147
▁Helen	-11148
▁cooperation	-11149
83	-11150
▁conversion	-11151
gus	-11152
neath	-11153
lain	-11154
▁Sz	-11155
Col	-11156
mill	-11157
▁Gay	-11158
▁cinema	-11159
▁restricted	-11160
▁Bright	-11161
▁Aber	-11162
▁porch	-11163
ullivan	-11164
▁locomotives	-11165
▁lifetime	-11166
▁PhD	-11167
▁unincorporated	-11168
oons	-11169
▁Jess	-11170
2016	-11171
▁bread	-11172
▁Person	-11173
▁collapse	-11174
▁Borough	-11175
▁Yam	-11176
anking	-11177
itting	-11178
▁sher	-11179
▁pseud	-11180
▁Municipality	-11181
peare	-11182
Be	-11183
▁columns	-11184
▁bite	-11185
▁tear	-11186
▁killer	-11187
▁99	-11188
▁dischar	-11189
▁Confederate	-11190
▁Kun	-11191
written	-11192
ourt	-11193
▁jon	-11194
▁Shar	-11195
▁Bulgar	-11196
▁boots	-11197
▁targets	-11198
gom	-11199
▁Compet	-11200
▁Soccer	-11201
onda	-11202
helm	-11203
▁dropping	-11204
▁whenever	-11205
▁Lion	-11206
▁Leeds	-11207
▁mall	-11208
▁Bath	-11209
▁Larry	-11210
▁revers	-11211
▁discrim	-11212
▁corps	-11213
▁10,000	-11214
▁Past	-11215
”,	-11216
▁Next	-11217
▁bonus	-11218
▁stiff	-11219
⁄2	-11220
▁Nevada	-11221
▁householder	-11222
▁disappear	-11223
▁submarine	-11224
oro	-11225
▁Advis	-11226
akespeare	-11227
weet	-11228
▁merc	-11229
alling	-11230
On	-11231
▁silk	-11232
▁Stuart	-11233
orp	-11234
▁fo	-11235
ilia	-11236
▁Hob	-11237
▁Henri	-11238
▁unexpected	-11239
length	-11240
▁promoting	-11241
urst	-11242
▁1979,	-11243
▁Finally	-11244
▁mate	-11245
▁Circuit	-11246
ashing	-11247
oka	-11248
erie	-11249
▁Berkeley	-11250
▁Colombia	-11251
▁Lan	-11252
▁corresponding	-11253
▁exclusive	-11254
▁ski	-11255
▁defended	-11256
▁Punjab	-11257
▁empire	-11258
▁indicating	-11259
▁municipalities	-11260
▁acquisition	-11261
▁Brew	-11262
▁exem	-11263
▁resumed	-11264
uber	-11265
▁sear	-11266
rise	-11267
▁Google	-11268
▁Holland	-11269
▁topics	-11270
1995	-11271
▁Protestant	-11272
raska	-11273
leyball	-11274
▁wreck	-11275
▁funny	-11276
garian	-11277
▁Susan	-11278
▁plates	-11279
▁reward	-11280
▁fantasy	-11281
▁liv	-11282
▁Salt	-11283
riet	-11284
▁error	-11285
▁attacking	-11286
ön	-11287
▁Buddhist	-11288
▁Pra	-11289
omar	-11290
▁Crim	-11291
pm	-11292
1996	-11293
▁Gam	-11294
▁Iceland	-11295
▁walks	-11296
cyclop	-11297
var	-11298
▁accessible	-11299
▁playoffs	-11300
rane	-11301
▁pointing	-11302
▁referring	-11303
▁SP	-11304
▁Ori	-11305
▁Om	-11306
▁Moh	-11307
xic	-11308
▁1972,	-11309
▁exch	-11310
leb	-11311
▁legislative	-11312
▁permitted	-11313
issions	-11314
▁betray	-11315
ér	-11316
▁automatic	-11317
▁Lov	-11318
▁1944,	-11319
hin	-11320
▁designation	-11321
▁Bald	-11322
▁Map	-11323
▁Ernest	-11324
▁que	-11325
▁fighters	-11326
sts	-11327
▁productions	-11328
rod	-11329
▁beaten	-11330
▁Sah	-11331
iffer	-11332
▁Pic	-11333
athon	-11334
▁firing	-11335
▁250	-11336
▁Lock	-11337
▁terrible	-11338
German	-11339
▁iv	-11340
▁trunk	-11341
▁creatures	-11342
▁geomet	-11343
isch	-11344
▁oxygen	-11345
▁reporting	-11346
▁Crime	-11347
month	-11348
▁annoy	-11349
▁explosion	-11350
1980	-11351
▁kg	-11352
▁relevant	-11353
umi	-11354
▁Anim	-11355
▁references	-11356
▁coordin	-11357
▁Expl	-11358
▁comments	-11359
▁resignation	-11360
▁answers	-11361
▁carrier	-11362
▁craft	-11363
▁controls	-11364
▁Chronic	-11365
▁summit	-11366
▁pump	-11367
▁Faculty	-11368
▁Log	-11369
aude	-11370
rary	-11371
▁pian	-11372
▁depicted	-11373
▁warned	-11374
▁exhibited	-11375
▁ranging	-11376
▁1899	-11377
▁shar	-11378
▁Armenian	-11379
▁distribut	-11380
ouch	-11381
▁fourteen	-11382
▁pairs	-11383
▁inspiration	-11384
▁Marvel	-11385
▁settlements	-11386
▁Begin	-11387
▁telephone	-11388
▁gardens	-11389
▁bub	-11390
▁virus	-11391
onomous	-11392
▁Sex	-11393
▁Napole	-11394
▁march	-11395
▁diet	-11396
outheastern	-11397
▁profile	-11398
▁ruler	-11399
▁Fu	-11400
▁recovery	-11401
▁reorgan	-11402
rington	-11403
▁kings	-11404
▁Computer	-11405
▁dramatic	-11406
▁800	-11407
family	-11408
onna	-11409
▁restaurants	-11410
▁tube	-11411
▁comparison	-11412
▁Professional	-11413
▁Mend	-11414
▁Ralph	-11415
▁prisoner	-11416
▁gathering	-11417
sing	-11418
▁panic	-11419
▁specialized	-11420
▁incred	-11421
▁Days	-11422
▁stretch	-11423
▁spotted	-11424
▁balls	-11425
▁personally	-11426
▁extensively	-11427
▁4:	-11428
▁Saudi	-11429
▁package	-11430
▁#1	-11431
▁Gust	-11432
▁collapsed	-11433
▁sank	-11434
▁tightly	-11435
▁Mann	-11436
▁grap	-11437
ouncill	-11438
ovakia	-11439
▁Vegas	-11440
▁Giants	-11441
oft	-11442
▁enorm	-11443
▁Yu	-11444
▁petition	-11445
▁receives	-11446
▁fright	-11447
▁ease	-11448
▁Edwards	-11449
ghai	-11450
▁crosses	-11451
▁Costa	-11452
▁furniture	-11453
▁Drive	-11454
▁graduation	-11455
▁72	-11456
▁colleges	-11457
▁sits	-11458
▁Bobby	-11459
▁compiled	-11460
tegr	-11461
▁instruction	-11462
velt	-11463
▁Tech	-11464
▁dear	-11465
▁explanation	-11466
ints	-11467
▁participating	-11468
▁lobby	-11469
▁alternate	-11470
▁americ	-11471
▁valuable	-11472
▁subsc	-11473
enburg	-11474
▁evolved	-11475
▁choir	-11476
▁Stanford	-11477
▁SA	-11478
▁Lost	-11479
lington	-11480
▁pole	-11481
▁1970,	-11482
▁voy	-11483
▁Romanized	-11484
▁Beh	-11485
▁breaks	-11486
▁stroke	-11487
▁temporarily	-11488
omed	-11489
▁focusing	-11490
avin	-11491
▁Hein	-11492
▁slip	-11493
▁beam	-11494
▁Grace	-11495
▁pitcher	-11496
▁1974,	-11497
▁taxes	-11498
▁sequel	-11499
▁enters	-11500
▁Florence	-11501
▁witch	-11502
▁coup	-11503
imm	-11504
pin	-11505
▁nickname	-11506
▁cotton	-11507
▁Petersburg	-11508
▁Dennis	-11509
▁framework	-11510
▁Term	-11511
▁festivals	-11512
81	-11513
▁cuts	-11514
▁contributing	-11515
▁1981,	-11516
ampa	-11517
▁peer	-11518
▁purple	-11519
▁influences	-11520
▁Mathemat	-11521
▁earthquake	-11522
▁Nebraska	-11523
▁Technical	-11524
▁Democrat	-11525
▁Aviation	-11526
▁inducted	-11527
acking	-11528
▁bend	-11529
asia	-11530
▁citizen	-11531
ospitals	-11532
▁Christianity	-11533
▁1968,	-11534
▁Chester	-11535
▁CN	-11536
▁toler	-11537
▁challenges	-11538
▁therapy	-11539
original	-11540
rus	-11541
uckland	-11542
▁hence	-11543
▁argue	-11544
Dec	-11545
def	-11546
▁touching	-11547
▁Gonz	-11548
ournaments	-11549
▁prol	-11550
▁fundamental	-11551
▁1975,	-11552
▁°	-11553
As	-11554
▁1896	-11555
My	-11556
▁Bund	-11557
▁Obama	-11558
▁Warri	-11559
▁Bog	-11560
▁Ridge	-11561
▁1895	-11562
▁Currently	-11563
▁Poet	-11564
▁Christians	-11565
▁monster	-11566
▁Math	-11567
▁tel	-11568
lu	-11569
shirt	-11570
▁haz	-11571
▁speakers	-11572
ovsky	-11573
▁stopping	-11574
▁constantly	-11575
▁Denver	-11576
▁excited	-11577
▁cavalry	-11578
▁entreprene	-11579
▁resid	-11580
▁lucky	-11581
▁shorter	-11582
▁Campaign	-11583
aturally	-11584
▁david	-11585
▁enforcement	-11586
ablished	-11587
▁Rou	-11588
▁Artillery	-11589
ishers	-11590
▁analy	-11591
▁interpretation	-11592
▁carved	-11593
▁campaigns	-11594
▁Venice	-11595
ivic	-11596
▁abb	-11597
ospel	-11598
▁filming	-11599
▁Murphy	-11600
▁messages	-11601
▁transp	-11602
▁fist	-11603
▁Manuel	-11604
▁quarterback	-11605
▁aggreg	-11606
▁marg	-11607
▁formula	-11608
arts	-11609
▁confident	-11610
Con	-11611
▁Pedro	-11612
▁variant	-11613
▁failing	-11614
▁screw	-11615
hl	-11616
▁radar	-11617
▁proteins	-11618
irms	-11619
él	-11620
▁grades	-11621
▁São	-11622
▁Chapel	-11623
▁NR	-11624
ancial	-11625
▁Study	-11626
utton	-11627
▁computers	-11628
▁Newcastle	-11629
▁Iss	-11630
▁Those	-11631
▁Tas	-11632
gments	-11633
▁Philosop	-11634
eyer	-11635
▁63	-11636
white	-11637
▁Operations	-11638
▁regret	-11639
▁counsel	-11640
▁Sic	-11641
▁Kle	-11642
▁1897	-11643
osexual	-11644
▁Encyclop	-11645
▁rice	-11646
umm	-11647
▁edges	-11648
chief	-11649
BE	-11650
igger	-11651
▁Luke	-11652
hor	-11653
▁motorcy	-11654
▁wash	-11655
gener	-11656
▁Pul	-11657
▁IT	-11658
▁Lev	-11659
▁pharm	-11660
▁weird	-11661
▁Eventually	-11662
▁hem	-11663
▁Franç	-11664
▁sidew	-11665
mans	-11666
▁wed	-11667
▁1978,	-11668
▁Gilbert	-11669
▁deter	-11670
eness	-11671
▁curve	-11672
▁Bass	-11673
ovich	-11674
itic	-11675
▁garage	-11676
▁resort	-11677
▁partial	-11678
▁doubles	-11679
For	-11680
held	-11681
▁certified	-11682
▁Heavy	-11683
osy	-11684
▁underneath	-11685
erness	-11686
▁62	-11687
cester	-11688
▁farming	-11689
amics	-11690
▁thorough	-11691
▁attendance	-11692
▁enrolled	-11693
▁deemed	-11694
▁tap	-11695
▁Kel	-11696
▁tomb	-11697
▁Democrats	-11698
▁harsh	-11699
▁nurse	-11700
▁clients	-11701
onnie	-11702
ificate	-11703
iolet	-11704
▁bast	-11705
▁Opp	-11706
▁Mahar	-11707
tes	-11708
▁NC	-11709
▁Fight	-11710
iour	-11711
▁Creat	-11712
▁1976,	-11713
▁Gregory	-11714
▁bachelor	-11715
▁Abu	-11716
▁Ancient	-11717
▁Neil	-11718
▁Ethiop	-11719
▁Warsaw	-11720
▁torped	-11721
omi	-11722
éd	-11723
▁77	-11724
▁symptoms	-11725
world	-11726
▁Auckland	-11727
▁tourist	-11728
▁experiments	-11729
▁memor	-11730
▁bridges	-11731
▁Protection	-11732
▁fastest	-11733
▁Athletics	-11734
▁difficulties	-11735
▁slide	-11736
▁Say	-11737
▁Maz	-11738
300	-11739
▁convince	-11740
▁Bav	-11741
banded	-11742
owship	-11743
vas	-11744
▁emphasis	-11745
▁collective	-11746
▁Rat	-11747
istent	-11748
▁Rivers	-11749
▁trapped	-11750
▁tenth	-11751
isle	-11752
▁properly	-11753
cat	-11754
iens	-11755
▁lots	-11756
RI	-11757
▁lighting	-11758
▁Shaw	-11759
▁mamm	-11760
anti	-11761
▁arrives	-11762
▁finance	-11763
ishops	-11764
▁obsc	-11765
▁Lions	-11766
▁Hitler	-11767
rific	-11768
▁hind	-11769
insky	-11770
▁checked	-11771
▁61	-11772
▁Players	-11773
▁kat	-11774
▁Hav	-11775
▁Block	-11776
▁attitude	-11777
auer	-11778
▁floors	-11779
ounce	-11780
▁distinctive	-11781
▁Ny	-11782
▁brill	-11783
▁revised	-11784
▁Argentine	-11785
EN	-11786
▁welcome	-11787
▁Delaware	-11788
▁Arnold	-11789
▁travels	-11790
Se	-11791
▁distinction	-11792
▁Right	-11793
▁dissolved	-11794
▁Leo	-11795
aters	-11796
rection	-11797
▁prox	-11798
rafts	-11799
made	-11800
▁assists	-11801
▁Nepal	-11802
▁elementary	-11803
▁Horse	-11804
ailing	-11805
▁spun	-11806
ushes	-11807
▁Based	-11808
▁rushing	-11809
▁mixture	-11810
▁objective	-11811
ieg	-11812
compass	-11813
▁los	-11814
iast	-11815
▁essentially	-11816
oline	-11817
ylan	-11818
▁narrative	-11819
▁usage	-11820
▁Future	-11821
▁1850	-11822
▁Á	-11823
▁Soft	-11824
▁diplomatic	-11825
▁adam	-11826
▁hopes	-11827
▁automatically	-11828
WA	-11829
▁corridor	-11830
▁tossed	-11831
▁desperate	-11832
▁Bach	-11833
▁Bulgarian	-11834
▁pitched	-11835
▁hadnt	-11836
▁Mul	-11837
▁employee	-11838
▁Economics	-11839
▁Males	-11840
▁helicopter	-11841
oko	-11842
illes	-11843
▁supplied	-11844
▁Treas	-11845
ün	-11846
alin	-11847
aho	-11848
▁writings	-11849
▁intensity	-11850
HP	-11851
▁Soph	-11852
▁Moroc	-11853
▁procedure	-11854
week	-11855
▁frank	-11856
▁Abraham	-11857
▁Oil	-11858
▁scattered	-11859
▁pressing	-11860
LP	-11861
▁Shakespeare	-11862
▁rode	-11863
▁Finance	-11864
▁Independence	-11865
ichi	-11866
▁Magic	-11867
▁Leader	-11868
▁literally	-11869
alysis	-11870
abbing	-11871
▁outdoor	-11872
▁academy	-11873
▁diseases	-11874
▁Filip	-11875
▁Eight	-11876
▁quad	-11877
▁Deep	-11878
▁Intelligence	-11879
Best	-11880
▁reducing	-11881
reated	-11882
▁situations	-11883
BO	-11884
stown	-11885
▁destination	-11886
▁Berg	-11887
icular	-11888
▁1971,	-11889
▁Hughes	-11890
Wh	-11891
▁Poll	-11892
▁celebration	-11893
rency	-11894
▁widow	-11895
▁sacrif	-11896
HA	-11897
▁seized	-11898
osevelt	-11899
thal	-11900
▁Aer	-11901
▁illustrated	-11902
uche	-11903
▁trace	-11904
▁flour	-11905
▁instinct	-11906
▁lets	-11907
▁siege	-11908
▁moist	-11909
▁Occ	-11910
▁Ottawa	-11911
▁amounts	-11912
],	-11913
▁Lux	-11914
▁shelter	-11915
zed	-11916
1994	-11917
first	-11918
▁Exchange	-11919
▁tang	-11920
▁collaborated	-11921
▁consolid	-11922
▁MS	-11923
▁1893	-11924
inge	-11925
▁characteristic	-11926
▁removal	-11927
sized	-11928
▁forb	-11929
▁beetle	-11930
▁delay	-11931
iscopal	-11932
▁permit	-11933
▁Raymond	-11934
acco	-11935
▁Mig	-11936
▁Performance	-11937
▁Nathan	-11938
▁stored	-11939
ferences	-11940
▁bats	-11941
▁Pel	-11942
▁soap	-11943
▁shocked	-11944
▁organic	-11945
▁payment	-11946
▁surprising	-11947
piece	-11948
▁95	-11949
▁grandson	-11950
▁til	-11951
▁Kenya	-11952
▁doctors	-11953
▁mainstream	-11954
▁Kay	-11955
▁regardless	-11956
▁worker	-11957
▁extinct	-11958
▁1969,	-11959
▁Anglic	-11960
▁coron	-11961
▁approaches	-11962
▁dict	-11963
▁technologies	-11964
▁departments	-11965
▁princess	-11966
▁kinds	-11967
▁chemistry	-11968
▁punishment	-11969
▁mary	-11970
▁haul	-11971
▁signals	-11972
▁mud	-11973
▁crying	-11974
▁Jar	-11975
▁Chi	-11976
▁1889	-11977
▁recur	-11978
▁Left	-11979
▁commenced	-11980
▁bother	-11981
▁revenge	-11982
▁Guardian	-11983
▁Ghana	-11984
ahl	-11985
▁predecessor	-11986
▁Leonard	-11987
▁Mut	-11988
eremy	-11989
ipher	-11990
▁NA	-11991
▁Put	-11992
▁tum	-11993
▁Friends	-11994
▁1973,	-11995
▁mike	-11996
▁input	-11997
levard	-11998
▁delayed	-11999
▁relegated	-12000
▁Syrian	-12001
▁shoved	-12002
agi	-12003
through	-12004
,”	-12005
ussia	-12006
▁1977,	-12007
▁Ted	-12008
▁Ru	-12009
▁addressed	-12010
▁vow	-12011
▁variable	-12012
▁fluid	-12013
▁tissue	-12014
ocal	-12015
▁striking	-12016
ische	-12017
▁pounds	-12018
▁Moz	-12019
new	-12020
roe	-12021
▁theories	-12022
▁repeatedly	-12023
▁Alger	-12024
▁stir	-12025
▁veteran	-12026
▁tournaments	-12027
▁thread	-12028
▁wand	-12029
Or	-12030
▁escort	-12031
▁Tibet	-12032
▁Azerbaijan	-12033
▁Hunt	-12034
▁Harbor	-12035
▁Productions	-12036
▁destro	-12037
uced	-12038
▁IP	-12039
▁CC	-12040
▁pour	-12041
arded	-12042
sor	-12043
▁Where	-12044
▁Side	-12045
etown	-12046
UC	-12047
▁Madison	-12048
▁dining	-12049
▁1885	-12050
omes	-12051
▁Production	-12052
xi	-12053
▁Butler	-12054
only	-12055
▁annex	-12056
ovan	-12057
▁relieved	-12058
lend	-12059
tor	-12060
▁Sak	-12061
▁drain	-12062
▁Sierra	-12063
opp	-12064
▁MD	-12065
▁divorce	-12066
▁assume	-12067
▁economics	-12068
▁85	-12069
▁footage	-12070
▁encompass	-12071
▁drown	-12072
▁76	-12073
▁ministry	-12074
▁comprehensive	-12075
▁Page	-12076
Can	-12077
▁Joint	-12078
▁surrender	-12079
▁samples	-12080
▁prosecut	-12081
▁arrangements	-12082
▁Watson	-12083
▁prey	-12084
▁Collect	-12085
▁reverse	-12086
▁legislature	-12087
arked	-12088
▁regul	-12089
▁laboratory	-12090
▁Wellington	-12091
▁bold	-12092
umbling	-12093
▁Spen	-12094
angs	-12095
isha	-12096
▁survival	-12097
1993	-12098
▁logo	-12099
▁imprisoned	-12100
▁descendants	-12101
osc	-12102
▁impression	-12103
▁fib	-12104
▁bob	-12105
▁allies	-12106
El	-12107
▁dish	-12108
▁adventure	-12109
▁sel	-12110
▁exhibit	-12111
▁Nan	-12112
▁coc	-12113
▁unp	-12114
▁Eddie	-12115
▁slee	-12116
▁Rif	-12117
▁historians	-12118
Hz	-12119
▁preparing	-12120
▁Wu	-12121
▁presents	-12122
employ	-12123
▁bloody	-12124
▁Gy	-12125
▁stere	-12126
ambers	-12127
▁ank	-12128
▁struggling	-12129
▁belly	-12130
▁basin	-12131
▁Wallace	-12132
▁concentrated	-12133
▁challenged	-12134
lined	-12135
▁occasional	-12136
ás	-12137
▁1967,	-12138
quer	-12139
verning	-12140
▁inject	-12141
▁kilometers	-12142
▁Roosevelt	-12143
▁closure	-12144
▁Friedrich	-12145
▁Sony	-12146
▁impressed	-12147
1992	-12148
▁orche	-12149
▁puzz	-12150
▁marble	-12151
▁Eff	-12152
▁promin	-12153
▁endors	-12154
▁monthly	-12155
▁accum	-12156
2017	-12157
▁directions	-12158
▁calendar	-12159
kar	-12160
▁1894	-12161
▁maid	-12162
▁pioneer	-12163
▁extending	-12164
▁volunteers	-12165
▁Trav	-12166
▁ridge	-12167
▁dece	-12168
▁artificial	-12169
▁vibr	-12170
lane	-12171
▁lib	-12172
▁posts	-12173
▁Wells	-12174
▁Shanghai	-12175
▁org	-12176
▁Financial	-12177
▁buses	-12178
▁keeps	-12179
▁sliding	-12180
▁orbit	-12181
▁interchange	-12182
▁Environmental	-12183
▁anime	-12184
▁1892	-12185
▁kills	-12186
▁Tax	-12187
▁Croatia	-12188
▁elevated	-12189
▁prev	-12190
▁Exam	-12191
gomery	-12192
▁evident	-12193
eh	-12194
▁sheep	-12195
▁manuscript	-12196
▁Conservation	-12197
▁Data	-12198
▁cried	-12199
▁grim	-12200
uto	-12201
alam	-12202
aders	-12203
▁colleagues	-12204
ele	-12205
duces	-12206
▁68	-12207
▁slammed	-12208
▁jason	-12209
▁installation	-12210
▁connects	-12211
▁Sug	-12212
ffield	-12213
▁explicit	-12214
▁suppose	-12215
▁corruption	-12216
▁Bulgaria	-12217
▁meal	-12218
▁eighteen	-12219
▁Harvey	-12220
▁dragged	-12221
istration	-12222
idy	-12223
▁Venezuela	-12224
cos	-12225
agram	-12226
▁Fighter	-12227
▁engagement	-12228
urope	-12229
ollo	-12230
▁retain	-12231
furt	-12232
▁chuck	-12233
▁Raw	-12234
orient	-12235
▁cloth	-12236
▁circles	-12237
▁disbanded	-12238
▁orb	-12239
▁1942,	-12240
▁fed	-12241
ilian	-12242
▁Any	-12243
▁Krist	-12244
▁EC	-12245
eor	-12246
▁abrupt	-12247
▁Tradition	-12248
umer	-12249
▁swung	-12250
▁Sor	-12251
▁Artist	-12252
▁Ib	-12253
▁releasing	-12254
mail	-12255
▁Grove	-12256
▁mild	-12257
▁pilots	-12258
▁laure	-12259
gebra	-12260
▁brigade	-12261
▁investigate	-12262
isode	-12263
pic	-12264
▁88	-12265
▁bore	-12266
ountain	-12267
▁lover	-12268
sl	-12269
March	-12270
▁Joan	-12271
▁Fun	-12272
hal	-12273
▁equally	-12274
▁virtual	-12275
▁tag	-12276
ups	-12277
▁sensitive	-12278
▁arena	-12279
▁boards	-12280
▁Online	-12281
▁Wed	-12282
▁contracts	-12283
RT	-12284
▁chrom	-12285
caster	-12286
▁blend	-12287
▁mansion	-12288
▁zane	-12289
▁Pav	-12290
▁1891	-12291
▁kissing	-12292
Pro	-12293
▁Lebanon	-12294
▁Sloven	-12295
▁Quarter	-12296
201	-12297
quet	-12298
▁$5	-12299
▁bombing	-12300
▁tab	-12301
▁semif	-12302
oshi	-12303
▁Outstanding	-12304
▁encountered	-12305
viously	-12306
▁Vermont	-12307
▁midfielder	-12308
▁Gra	-12309
▁inspect	-12310
entieth	-12311
▁songwriter	-12312
▁Monday	-12313
zing	-12314
▁Primary	-12315
regular	-12316
▁murmured	-12317
writing	-12318
▁consistent	-12319
▁dawn	-12320
▁innocent	-12321
andra	-12322
▁Dest	-12323
▁interaction	-12324
▁feud	-12325
comp	-12326
▁Southeast	-12327
▁Suz	-12328
▁michael	-12329
▁Mills	-12330
axy	-12331
▁missile	-12332
▁cathedral	-12333
rys	-12334
ocolate	-12335
cott	-12336
▁Š	-12337
haus	-12338
▁buff	-12339
families	-12340
▁Liga	-12341
▁Plat	-12342
▁disturb	-12343
▁Hat	-12344
▁paul	-12345
▁Shin	-12346
▁wasn	-12347
▁toll	-12348
inery	-12349
Jan	-12350
▁lon	-12351
▁dug	-12352
ju	-12353
▁honors	-12354
handed	-12355
▁Newton	-12356
▁detective	-12357
▁parks	-12358
▁shallow	-12359
▁Compan	-12360
minster	-12361
▁devast	-12362
▁Cruz	-12363
▁genes	-12364
pling	-12365
▁instructions	-12366
▁Malay	-12367
▁Phillips	-12368
▁sustained	-12369
▁96	-12370
wyn	-12371
▁67	-12372
▁Range	-12373
▁vocalist	-12374
ña	-12375
▁hardware	-12376
▁Somers	-12377
▁generations	-12378
icia	-12379
yers	-12380
▁Cork	-12381
▁Bond	-12382
▁flick	-12383
▁filling	-12384
▁consumption	-12385
▁glasses	-12386
▁casualties	-12387
▁Oscar	-12388
▁pleased	-12389
▁physically	-12390
▁Chan	-12391
▁gaining	-12392
▁accurate	-12393
founded	-12394
▁impressive	-12395
▁ft	-12396
400	-12397
▁likes	-12398
▁Bened	-12399
ding	-12400
▁unt	-12401
▁incumbent	-12402
▁dirty	-12403
▁celebrate	-12404
▁servant	-12405
▁prevented	-12406
▁Formula	-12407
▁legit	-12408
▁elevator	-12409
▁Prest	-12410
enson	-12411
▁firmly	-12412
▁Carr	-12413
▁wheels	-12414
▁Wilhelm	-12415
▁Artists	-12416
▁relating	-12417
hell	-12418
▁maintaining	-12419
▁Eld	-12420
▁Ronald	-12421
▁Ambassador	-12422
▁bankrupt	-12423
sur	-12424
Ex	-12425
▁solutions	-12426
▁1941,	-12427
▁Renaissance	-12428
▁seeds	-12429
▁Mol	-12430
▁nobody	-12431
▁Guild	-12432
ansk	-12433
hall	-12434
▁residing	-12435
▁supplement	-12436
▁rocket	-12437
▁pulls	-12438
▁sovere	-12439
idance	-12440
▁Ruth	-12441
▁capita	-12442
count	-12443
▁Ax	-12444
Ad	-12445
▁fewer	-12446
▁nomine	-12447
▁accommodate	-12448
▁fart	-12449
▁athletic	-12450
▁Price	-12451
ctuary	-12452
▁Anti	-12453
▁shaped	-12454
▁patent	-12455
▁institute	-12456
▁acoustic	-12457
▁permanently	-12458
▁69	-12459
▁blocked	-12460
▁Pain	-12461
▁enormous	-12462
▁prayer	-12463
▁Jacques	-12464
agons	-12465
▁×	-12466
▁triple	-12467
▁Palmer	-12468
▁perceived	-12469
▁spac	-12470
▁improvements	-12471
▁updated	-12472
▁verse	-12473
▁preserve	-12474
▁tun	-12475
EP	-12476
▁rounded	-12477
▁breeding	-12478
▁tender	-12479
ulsion	-12480
Pr	-12481
▁Relations	-12482
ethyl	-12483
▁Sha	-12484
▁Arc	-12485
▁integ	-12486
▁humor	-12487
▁prompt	-12488
▁Montana	-12489
▁Kur	-12490
▁Croatian	-12491
wind	-12492
▁Syn	-12493
ignated	-12494
▁recruited	-12495
atra	-12496
▁Stein	-12497
gence	-12498
cur	-12499
▁1800	-12500
aca	-12501
▁Return	-12502
▁hypothes	-12503
▁locomotive	-12504
▁Byzantine	-12505
▁78	-12506
▁Ober	-12507
ahan	-12508
core	-12509
▁abstract	-12510
▁coached	-12511
▁screaming	-12512
▁ware	-12513
▁bearing	-12514
▁Nashville	-12515
▁swing	-12516
IM	-12517
▁weaken	-12518
pher	-12519
join	-12520
▁Bent	-12521
▁Official	-12522
▁gauge	-12523
▁gymn	-12524
▁planted	-12525
▁achievement	-12526
▁Haz	-12527
▁basement	-12528
▁historically	-12529
▁Marx	-12530
▁blog	-12531
▁Thai	-12532
▁Beth	-12533
▁studios	-12534
▁landmark	-12535
kward	-12536
▁gates	-12537
pit	-12538
▁mystery	-12539
▁Number	-12540
Station	-12541
▁enroll	-12542
▁suspension	-12543
▁jeal	-12544
post	-12545
Ed	-12546
▁McM	-12547
▁engage	-12548
▁ambassador	-12549
▁functional	-12550
disc	-12551
itudes	-12552
utter	-12553
▁concur	-12554
▁handling	-12555
▁Article	-12556
▁vulnerable	-12557
▁Hale	-12558
▁database	-12559
▁laughter	-12560
▁thereby	-12561
▁variation	-12562
▁efficiency	-12563
▁Must	-12564
▁Still	-12565
aukee	-12566
▁Rhodes	-12567
▁Crow	-12568
conn	-12569
▁1888	-12570
▁patri	-12571
▁lakes	-12572
cz	-12573
zig	-12574
▁organisations	-12575
▁Was	-12576
▁fraud	-12577
▁Isaac	-12578
eu	-12579
▁ing	-12580
▁Reform	-12581
▁resting	-12582
▁MTV	-12583
▁hunt	-12584
▁privile	-12585
▁neighboring	-12586
▁Airlines	-12587
▁administered	-12588
▁mysterious	-12589
ait	-12590
▁conductor	-12591
▁raid	-12592
▁Dol	-12593
▁Delta	-12594
▁martial	-12595
▁View	-12596
itro	-12597
▁Annual	-12598
harm	-12599
▁Rav	-12600
▁blast	-12601
▁consumer	-12602
▁Gabriel	-12603
atta	-12604
▁intr	-12605
▁Private	-12606
1991	-12607
▁commitment	-12608
▁punch	-12609
▁piss	-12610
▁Commerce	-12611
iao	-12612
chair	-12613
▁absolute	-12614
▁listened	-12615
▁lean	-12616
▁brushed	-12617
▁holy	-12618
▁lined	-12619
▁transformed	-12620
▁tours	-12621
▁abund	-12622
▁Rac	-12623
nal	-12624
▁receiver	-12625
▁Manager	-12626
▁observation	-12627
▁Vent	-12628
▁Ches	-12629
▁tasks	-12630
▁mainland	-12631
▁fortress	-12632
▁picking	-12633
▁IN	-12634
eda	-12635
arms	-12636
▁undergraduate	-12637
▁cogn	-12638
▁Hamburg	-12639
isan	-12640
▁announcement	-12641
▁structural	-12642
▁behaviour	-12643
▁Sheffield	-12644
▁Higher	-12645
▁theres	-12646
▁manga	-12647
▁Gas	-12648
▁guilt	-12649
▁bears	-12650
▁abolished	-12651
▁Sean	-12652
onial	-12653
▁Philosophy	-12654
▁cott	-12655
▁1943,	-12656
whe	-12657
ublished	-12658
▁Morning	-12659
bone	-12660
▁dialect	-12661
iability	-12662
▁Beginning	-12663
three	-12664
▁coaches	-12665
▁holes	-12666
▁sew	-12667
▁1865	-12668
▁politicians	-12669
▁printing	-12670
▁Shir	-12671
▁hood	-12672
▁1965,	-12673
dal	-12674
▁Northwest	-12675
auc	-12676
▁Princeton	-12677
▁tale	-12678
▁Swan	-12679
▁Syl	-12680
▁Villa	-12681
▁Room	-12682
▁Kin	-12683
swick	-12684
▁awkward	-12685
▁dock	-12686
▁Otto	-12687
▁Cec	-12688
itus	-12689
▁Scientific	-12690
▁affiliate	-12691
cling	-12692
▁trap	-12693
▁attraction	-12694
just	-12695
▁cust	-12696
▁revealing	-12697
quiry	-12698
bye	-12699
▁cartoon	-12700
▁signature	-12701
▁disorder	-12702
▁Editor	-12703
▁vig	-12704
force	-12705
▁Tommy	-12706
▁Thunder	-12707
▁Pearl	-12708
▁punk	-12709
▁Beaut	-12710
▁everywhere	-12711
▁optim	-12712
▁Imm	-12713
▁rust	-12714
▁namely	-12715
ogical	-12716
▁autumn	-12717
▁defender	-12718
ught	-12719
▁Agriculture	-12720
owder	-12721
▁examination	-12722
▁elite	-12723
▁sciences	-12724
▁Dod	-12725
eto	-12726
▁warrior	-12727
▁documented	-12728
zyme	-12729
▁aviation	-12730
▁penet	-12731
▁quarters	-12732
airo	-12733
▁counterpart	-12734
▁altitude	-12735
▁radiation	-12736
▁climbing	-12737
▁tut	-12738
▁htt	-12739
▁airline	-12740
▁imagined	-12741
▁athlete	-12742
inite	-12743
▁voiced	-12744
Nov	-12745
▁98	-12746
▁essay	-12747
▁readers	-12748
▁spite	-12749
▁Archae	-12750
▁encourage	-12751
▁Armed	-12752
▁blur	-12753
▁aims	-12754
▁topic	-12755
▁Giov	-12756
And	-12757
▁Sask	-12758
▁Chapter	-12759
avian	-12760
▁ratings	-12761
▁1887	-12762
▁Junction	-12763
▁brut	-12764
▁confirm	-12765
▁statements	-12766
▁peter	-12767
▁Drama	-12768
▁jealous	-12769
▁displays	-12770
▁Bear	-12771
▁tough	-12772
▁Wald	-12773
▁Chang	-12774
▁fame	-12775
erving	-12776
▁goddess	-12777
▁pig	-12778
▁sunk	-12779
▁raced	-12780
▁plenty	-12781
▁slept	-12782
▁electro	-12783
▁Ari	-12784
▁knight	-12785
▁tributary	-12786
▁boxes	-12787
azi	-12788
▁improvement	-12789
▁archaeological	-12790
▁74	-12791
▁Workers	-12792
▁dialogue	-12793
uns	-12794
▁Altern	-12795
▁puts	-12796
▁1964,	-12797
▁suffer	-12798
▁Transportation	-12799
▁exhibitions	-12800
waukee	-12801
▁companion	-12802
gio	-12803
▁comprises	-12804
▁Elementary	-12805
▁extends	-12806
▁Tong	-12807
▁Ran	-12808
▁eager	-12809
▁civilians	-12810
▁Montgomery	-12811
▁Cameron	-12812
▁Wag	-12813
▁feather	-12814
omo	-12815
▁excit	-12816
▁1940,	-12817
▁Clarke	-12818
▁magnetic	-12819
path	-12820
▁manages	-12821
▁actively	-12822
▁Kash	-12823
▁Iraqi	-12824
▁Spencer	-12825
isco	-12826
hou	-12827
adier	-12828
▁curric	-12829
▁bord	-12830
▁Inv	-12831
▁Eagles	-12832
DE	-12833
nut	-12834
istle	-12835
oj	-12836
▁saving	-12837
▁renowned	-12838
▁customer	-12839
▁shouted	-12840
▁Franz	-12841
▁oak	-12842
▁leagues	-12843
▁sab	-12844
▁concepts	-12845
▁redes	-12846
000,	-12847
▁waved	-12848
▁Anglican	-12849
▁morph	-12850
▁Yugoslavia	-12851
▁retro	-12852
▁conspir	-12853
▁followers	-12854
namese	-12855
▁Prefecture	-12856
▁XX	-12857
▁naturally	-12858
▁presentation	-12859
pense	-12860
▁summon	-12861
▁Kab	-12862
▁colonies	-12863
▁XV	-12864
umni	-12865
▁Maurice	-12866
▁hyd	-12867
▁Scar	-12868
▁71	-12869
gov	-12870
▁absolutely	-12871
▁quit	-12872
▁stationed	-12873
▁crystal	-12874
▁keyboard	-12875
▁healthy	-12876
▁cod	-12877
▁brush	-12878
VP	-12879
▁1861	-12880
orr	-12881
1970	-12882
▁64,	-12883
▁contribute	-12884
▁Prague	-12885
▁Carn	-12886
▁Actor	-12887
▁Deuts	-12888
▁succession	-12889
▁bitter	-12890
▁Wonder	-12891
▁Pent	-12892
arta	-12893
atoes	-12894
tingham	-12895
▁overl	-12896
▁1966,	-12897
lag	-12898
atha	-12899
▁resource	-12900
▁97	-12901
pine	-12902
third	-12903
▁refugees	-12904
ser	-12905
▁Musical	-12906
▁cultures	-12907
▁Danny	-12908
▁temples	-12909
▁rings	-12910
▁Todd	-12911
▁glac	-12912
▁moll	-12913
▁warmth	-12914
onso	-12915
▁consequences	-12916
about	-12917
▁rope	-12918
▁Ing	-12919
▁frozen	-12920
epper	-12921
▁survivors	-12922
wings	-12923
osophical	-12924
▁soci	-12925
▁Rah	-12926
▁rebellion	-12927
▁stalk	-12928
▁u	-12929
▁shipping	-12930
▁Methodist	-12931
▁crops	-12932
▁heaven	-12933
▁cheer	-12934
▁1/	-12935
▁circular	-12936
▁exterior	-12937
itol	-12938
imo	-12939
opened	-12940
▁severely	-12941
▁Valent	-12942
speed	-12943
▁Diamond	-12944
▁101	-12945
▁republic	-12946
▁Essex	-12947
▁Laura	-12948
▁neighb	-12949
▁Jur	-12950
sup	-12951
▁Cox	-12952
▁orient	-12953
▁citing	-12954
▁maj	-12955
▁Fish	-12956
▁hospitals	-12957
gart	-12958
sub	-12959
▁programmes	-12960
▁Oct	-12961
▁contents	-12962
▁vital	-12963
addle	-12964
enders	-12965
If	-12966
▁82	-12967
▁threats	-12968
▁Hous	-12969
hend	-12970
▁Student	-12971
ultural	-12972
▁Ki	-12973
isons	-12974
▁invented	-12975
sted	-12976
▁1864	-12977
▁owns	-12978
▁poster	-12979
agne	-12980
▁Jen	-12981
▁Weekly	-12982
team	-12983
▁Dale	-12984
▁strengthen	-12985
▁Movie	-12986
▁Pi	-12987
▁Dictionary	-12988
▁44,	-12989
▁pride	-12990
▁cameras	-12991
▁Sul	-12992
▁horizont	-12993
ophone	-12994
▁Cand	-12995
▁Forum	-12996
▁flames	-12997
▁experts	-12998
▁amazing	-12999
▁proceeded	-13000
▁universal	-13001
▁perpet	-13002
▁Cardinal	-13003
▁Wit	-13004
▁loves	-13005
▁tier	-13006
▁fires	-13007
▁surely	-13008
▁discovers	-13009
▁Ful	-13010
▁Kol	-13011
▁biography	-13012
▁Revolutionary	-13013
▁cer	-13014
▁uncons	-13015
▁inhib	-13016
▁VII	-13017
▁Perth	-13018
▁altered	-13019
▁psychology	-13020
▁Viol	-13021
▁Grammy	-13022
▁diesel	-13023
▁Reyn	-13024
▁**	-13025
▁approaching	-13026
ournals	-13027
▁Rus	-13028
ikes	-13029
▁animation	-13030
arling	-13031
▁breathe	-13032
▁tourism	-13033
▁Palestine	-13034
▁Nine	-13035
600	-13036
▁Sox	-13037
▁Flying	-13038
▁united	-13039
▁Og	-13040
otted	-13041
▁armor	-13042
▁manual	-13043
▁freight	-13044
▁Liberty	-13045
▁artif	-13046
▁Reed	-13047
▁rational	-13048
▁creates	-13049
▁reservoir	-13050
ema	-13051
▁reforms	-13052
▁colonel	-13053
▁exhaust	-13054
▁Indies	-13055
▁AN	-13056
▁brilliant	-13057
▁ic	-13058
▁explore	-13059
page	-13060
▁convert	-13061
▁argues	-13062
▁AF	-13063
▁prestigious	-13064
▁lessons	-13065
▁Kid	-13066
1989	-13067
▁volunteer	-13068
▁Baronet	-13069
▁Eagle	-13070
▁AS	-13071
▁Reich	-13072
lived	-13073
▁broadcasts	-13074
▁trem	-13075
▁73	-13076
▁Prof	-13077
▁roster	-13078
▁Hum	-13079
▁reply	-13080
▁Java	-13081
▁victories	-13082
April	-13083
▁1960,	-13084
▁liver	-13085
▁crick	-13086
▁Writing	-13087
▁renewed	-13088
LO	-13089
June	-13090
▁Lot	-13091
▁Foster	-13092
▁Bennett	-13093
▁uncomfort	-13094
cussion	-13095
née	-13096
▁barn	-13097
▁tram	-13098
▁culmin	-13099
▁suggesting	-13100
▁jo	-13101
▁daniel	-13102
▁artwork	-13103
▁download	-13104
▁yours	-13105
▁predominantly	-13106
▁1886	-13107
mid	-13108
▁retiring	-13109
▁dean	-13110
▁noting	-13111
▁portions	-13112
▁ruins	-13113
▁Kerala	-13114
▁Nevertheless	-13115
▁touchdowns	-13116
icity	-13117
▁feared	-13118
▁Columbus	-13119
▁81	-13120
▁Edmund	-13121
▁assessment	-13122
▁regulation	-13123
▁spokes	-13124
▁Sold	-13125
▁ferry	-13126
▁Daw	-13127
▁towers	-13128
group	-13129
▁Tab	-13130
ordinary	-13131
som	-13132
▁requiring	-13133
▁Sudan	-13134
▁fisher	-13135
▁Less	-13136
green	-13137
▁Yellow	-13138
umberland	-13139
▁rachel	-13140
▁convoy	-13141
▁1863	-13142
founder	-13143
▁Liu	-13144
RE	-13145
▁remix	-13146
▁relatives	-13147
De	-13148
bank	-13149
eme	-13150
speaking	-13151
enzie	-13152
▁Access	-13153
cul	-13154
▁theatrical	-13155
▁runners	-13156
▁HD	-13157
ounted	-13158
boys	-13159
▁hybrid	-13160
iology	-13161
Don	-13162
▁rage	-13163
▁rh	-13164
▁qualification	-13165
▁Krish	-13166
▁feeding	-13167
▁Cris	-13168
forming	-13169
August	-13170
artet	-13171
What	-13172
▁Jin	-13173
▁Cabinet	-13174
ww	-13175
▁swift	-13176
▁Mik	-13177
▁Gothic	-13178
▁Revival	-13179
▁Mario	-13180
shot	-13181
imensional	-13182
▁floating	-13183
▁anthrop	-13184
▁PlayStation	-13185
▁Rams	-13186
▁Railways	-13187
▁Saskat	-13188
▁Ghost	-13189
▁Suff	-13190
▁Pract	-13191
▁upcoming	-13192
▁Aires	-13193
▁Nak	-13194
pse	-13195
▁phosph	-13196
▁stead	-13197
▁streak	-13198
▁blues	-13199
inae	-13200
▁Brunswick	-13201
uba	-13202
▁pav	-13203
▁1884	-13204
lass	-13205
▁navy	-13206
▁Reading	-13207
imer	-13208
itted	-13209
ente	-13210
▁trio	-13211
▁bru	-13212
woman	-13213
▁anchor	-13214
bery	-13215
▁seal	-13216
▁bulk	-13217
▁acknowledged	-13218
azar	-13219
▁Geoff	-13220
irling	-13221
▁blame	-13222
▁beliefs	-13223
ete	-13224
▁Dame	-13225
▁breed	-13226
▁ladies	-13227
▁Lie	-13228
ourg	-13229
roke	-13230
▁"[	-13231
▁Harper	-13232
▁screamed	-13233
▁vin	-13234
▁Tasman	-13235
▁discontinued	-13236
▁Midd	-13237
▁Golf	-13238
▁Gang	-13239
▁infection	-13240
▁honored	-13241
▁intervention	-13242
istani	-13243
▁binding	-13244
bek	-13245
igate	-13246
▁commentary	-13247
▁layers	-13248
borg	-13249
ungle	-13250
▁fract	-13251
▁Buc	-13252
▁expecting	-13253
▁Raf	-13254
National	-13255
▁Albums	-13256
▁courage	-13257
▁independently	-13258
herent	-13259
▁Panama	-13260
uddy	-13261
▁enact	-13262
▁interface	-13263
hev	-13264
▁Batman	-13265
iago	-13266
oints	-13267
▁gram	-13268
▁priests	-13269
headed	-13270
▁Fig	-13271
▁Celtic	-13272
▁attractive	-13273
word	-13274
▁Vladimir	-13275
▁Walt	-13276
holders	-13277
▁protecting	-13278
ateral	-13279
▁chorus	-13280
▁Films	-13281
▁faded	-13282
▁eventual	-13283
▁Stockholm	-13284
▁thesis	-13285
▁wounds	-13286
ław	-13287
▁Lucas	-13288
▁scandal	-13289
▁Boulevard	-13290
imen	-13291
▁Cyr	-13292
byter	-13293
▁1862	-13294
▁equation	-13295
▁dependent	-13296
brook	-13297
▁ske	-13298
▁jess	-13299
▁lightly	-13300
▁ampl	-13301
Qu	-13302
▁Slav	-13303
▁progressive	-13304
▁separation	-13305
▁bab	-13306
▁1881	-13307
▁rebels	-13308
▁professionals	-13309
oku	-13310
▁strap	-13311
▁pianist	-13312
iden	-13313
ormal	-13314
▁bol	-13315
fol	-13316
▁bike	-13317
▁Track	-13318
flu	-13319
▁Stakes	-13320
▁statistics	-13321
emon	-13322
▁Dim	-13323
▁practiced	-13324
▁Kate	-13325
▁Knights	-13326
▁relay	-13327
▁sarah	-13328
▁accomplished	-13329
▁assignment	-13330
▁Interstate	-13331
actor	-13332
▁ram	-13333
▁absent	-13334
munition	-13335
cled	-13336
▁Nancy	-13337
▁clouds	-13338
▁restrictions	-13339
mith	-13340
▁Fourth	-13341
ounters	-13342
▁prototype	-13343
iblings	-13344
▁Kill	-13345
2018	-13346
▁Gand	-13347
▁Talk	-13348
▁Congo	-13349
▁clearing	-13350
▁creek	-13351
anthrop	-13352
▁Indonesian	-13353
▁tremb	-13354
avery	-13355
▁guidance	-13356
▁perf	-13357
John	-13358
pton	-13359
etti	-13360
▁Somerset	-13361
makers	-13362
▁volunt	-13363
▁blanket	-13364
elyn	-13365
▁memb	-13366
▁Jak	-13367
▁rubbed	-13368
▁Volunte	-13369
▁Pod	-13370
▁reviewed	-13371
▁Owen	-13372
▁deals	-13373
▁dancer	-13374
inguished	-13375
▁numbered	-13376
hop	-13377
umbai	-13378
uting	-13379
▁Ferdin	-13380
▁procedures	-13381
bet	-13382
▁headquarter	-13383
acular	-13384
▁Citiz	-13385
shore	-13386
▁communist	-13387
▁Apost	-13388
▁fake	-13389
▁Gaz	-13390
▁Stage	-13391
ussels	-13392
▁envelop	-13393
▁Architecture	-13394
▁advertis	-13395
▁pile	-13396
▁sax	-13397
▁Palestinian	-13398
adian	-13399
▁Poly	-13400
urated	-13401
▁segments	-13402
▁MC	-13403
▁allegedly	-13404
LB	-13405
▁possessed	-13406
▁Miguel	-13407
▁Secondary	-13408
▁Engineers	-13409
▁Theory	-13410
▁moderate	-13411
▁dispers	-13412
At	-13413
▁chairs	-13414
▁immigration	-13415
▁fence	-13416
▁Aaron	-13417
▁Mull	-13418
▁unconscious	-13419
raits	-13420
ben	-13421
iary	-13422
▁Johannes	-13423
▁delight	-13424
▁Milwaukee	-13425
▁grid	-13426
▁curtain	-13427
▁comics	-13428
▁McL	-13429
▁advocate	-13430
ilo	-13431
▁fung	-13432
▁auction	-13433
▁Spider	-13434
▁1939,	-13435
▁Wals	-13436
▁Brah	-13437
▁exile	-13438
▁potentially	-13439
▁wonderful	-13440
▁Bun	-13441
oving	-13442
RO	-13443
▁cord	-13444
▁Twenty	-13445
▁introduce	-13446
▁Gate	-13447
▁bicy	-13448
▁loos	-13449
▁Bag	-13450
▁practically	-13451
▁à	-13452
▁BM	-13453
▁Oakland	-13454
boro	-13455
▁specialist	-13456
▁whit	-13457
▁Coach	-13458
▁Using	-13459
▁Tall	-13460
▁enzyme	-13461
▁Aj	-13462
▁Arabia	-13463
▁Buenos	-13464
▁streams	-13465
▁involve	-13466
ateful	-13467
▁1963,	-13468
▁doesnt	-13469
▁Laboratory	-13470
acional	-13471
▁Vietnamese	-13472
oux	-13473
▁venues	-13474
1988	-13475
▁Palomar	-13476
oting	-13477
▁Scout	-13478
▁literacy	-13479
▁Observ	-13480
▁patch	-13481
▁oct	-13482
IF	-13483
▁curled	-13484
▁Actress	-13485
▁Lamb	-13486
▁revival	-13487
▁sacred	-13488
▁Planet	-13489
mented	-13490
nings	-13491
stage	-13492
eca	-13493
illon	-13494
▁Ow	-13495
▁bree	-13496
▁sailing	-13497
▁requirement	-13498
▁weigh	-13499
▁underwent	-13500
▁provisions	-13501
▁mutual	-13502
▁Kenneth	-13503
▁Expedition	-13504
▁handled	-13505
▁privately	-13506
▁invitation	-13507
▁yester	-13508
▁summ	-13509
▁intellig	-13510
▁Legion	-13511
▁Site	-13512
▁tob	-13513
▁Rhode	-13514
▁woke	-13515
ellation	-13516
▁graphics	-13517
▁absorbed	-13518
▁Circle	-13519
▁poured	-13520
legraph	-13521
asan	-13522
▁NASA	-13523
▁spare	-13524
▁Sullivan	-13525
iliary	-13526
▁similarly	-13527
uded	-13528
▁recruit	-13529
▁Manila	-13530
▁comprom	-13531
▁Mang	-13532
▁Craw	-13533
▁criteria	-13534
seat	-13535
inas	-13536
▁clo	-13537
▁entr	-13538
▁handful	-13539
▁ranges	-13540
▁divorced	-13541
▁Scotia	-13542
▁eleg	-13543
▁restore	-13544
▁counted	-13545
▁humanity	-13546
▁variations	-13547
▁demons	-13548
▁cooking	-13549
opol	-13550
▁beth	-13551
▁dorm	-13552
▁complicated	-13553
▁transit	-13554
▁consciousness	-13555
ocity	-13556
omorph	-13557
▁reserves	-13558
▁Original	-13559
backs	-13560
▁desired	-13561
▁wiped	-13562
English	-13563
▁unanim	-13564
▁praise	-13565
central	-13566
▁developments	-13567
▁ion	-13568
▁flowing	-13569
▁remn	-13570
colm	-13571
oland	-13572
erts	-13573
▁Julian	-13574
tail	-13575
▁Path	-13576
▁Herald	-13577
intendent	-13578
▁irrit	-13579
▁emerging	-13580
▁lifting	-13581
▁bags	-13582
ndum	-13583
▁entity	-13584
irus	-13585
▁Kor	-13586
▁Lex	-13587
▁92	-13588
▁identification	-13589
▁panels	-13590
▁Bak	-13591
▁heels	-13592
October	-13593
▁Leices	-13594
ections	-13595
▁novelist	-13596
arre	-13597
arc	-13598
second	-13599
July	-13600
▁copyright	-13601
kan	-13602
▁inscription	-13603
▁circulation	-13604
▁grants	-13605
▁congregation	-13606
▁Made	-13607
▁1882	-13608
ht	-13609
▁Lac	-13610
▁Paulo	-13611
▁excitement	-13612
▁accent	-13613
▁Sep	-13614
▁warriors	-13615
▁snake	-13616
▁tatto	-13617
▁accidentally	-13618
One	-13619
▁intens	-13620
▁1962,	-13621
▁Justin	-13622
UN	-13623
BL	-13624
▁Fat	-13625
iatric	-13626
isi	-13627
▁magnitude	-13628
▁Sey	-13629
enhagen	-13630
▁1840	-13631
this	-13632
▁Vern	-13633
▁Cinema	-13634
▁ian	-13635
▁Voice	-13636
▁guarant	-13637
▁logic	-13638
:30	-13639
senal	-13640
ulture	-13641
▁editorial	-13642
www	-13643
direct	-13644
▁concentr	-13645
▁prelim	-13646
▁bout	-13647
▁maintains	-13648
aru	-13649
▁targeted	-13650
ilda	-13651
built	-13652
▁loaded	-13653
▁emma	-13654
▁symmet	-13655
asse	-13656
▁surrend	-13657
▁Hab	-13658
▁realm	-13659
▁PS	-13660
▁ST	-13661
▁HMS	-13662
▁Oz	-13663
▁compat	-13664
▁enabled	-13665
yll	-13666
stration	-13667
ecraft	-13668
▁Durham	-13669
loaded	-13670
▁minimal	-13671
September	-13672
▁Ahmed	-13673
enesis	-13674
onomy	-13675
▁Cov	-13676
▁GT	-13677
▁Pete	-13678
▁ramp	-13679
▁Fly	-13680
▁assembled	-13681
had	-13682
▁beast	-13683
▁chore	-13684
▁questioned	-13685
▁canon	-13686
▁Quest	-13687
▁varied	-13688
habil	-13689
cano	-13690
▁rod	-13691
erver	-13692
▁servants	-13693
▁saint	-13694
▁Provincial	-13695
▁psychological	-13696
▁Gent	-13697
▁molecular	-13698
▁burial	-13699
▁Holmes	-13700
▁Lak	-13701
rying	-13702
▁Eis	-13703
▁Peng	-13704
▁93	-13705
▁87	-13706
▁removing	-13707
▁rested	-13708
▁tourists	-13709
▁Folk	-13710
▁width	-13711
alian	-13712
▁Devon	-13713
▁metropolitan	-13714
▁Lisa	-13715
attering	-13716
▁Dy	-13717
▁grain	-13718
▁sheets	-13719
▁Pick	-13720
▁wishes	-13721
▁travelling	-13722
▁bills	-13723
▁Machine	-13724
▁fortune	-13725
▁mere	-13726
▁armies	-13727
GM	-13728
▁Bod	-13729
▁accus	-13730
▁Westminster	-13731
tershire	-13732
▁gut	-13733
▁hier	-13734
▁2,000	-13735
▁pine	-13736
▁Nottingham	-13737
▁prosper	-13738
lining	-13739
ittees	-13740
▁Abdul	-13741
bling	-13742
store	-13743
▁pursued	-13744
▁Belf	-13745
▁damp	-13746
▁trips	-13747
▁Franco	-13748
▁Indianapolis	-13749
▁flooding	-13750
▁jumping	-13751
▁siblings	-13752
▁particles	-13753
▁Raid	-13754
▁Ages	-13755
▁hurried	-13756
▁Jamaica	-13757
▁export	-13758
▁cub	-13759
stable	-13760
▁Starting	-13761
uate	-13762
▁farmer	-13763
▁Rut	-13764
▁drawings	-13765
▁mi	-13766
▁integration	-13767
phis	-13768
▁USS	-13769
▁1948,	-13770
▁Encyclopedia	-13771
inished	-13772
▁diversity	-13773
▁Tir	-13774
▁welfare	-13775
ressing	-13776
▁1883	-13777
▁Piet	-13778
▁warfare	-13779
▁ports	-13780
▁Kem	-13781
▁topped	-13782
▁fru	-13783
intendo	-13784
▁desp	-13785
HF	-13786
▁salv	-13787
▁lawsuit	-13788
oup	-13789
▁Baby	-13790
▁arguing	-13791
▁expanding	-13792
six	-13793
▁mentions	-13794
▁autobi	-13795
▁Mechan	-13796
▁Pand	-13797
▁1946,	-13798
▁Mumbai	-13799
▁manufacturers	-13800
▁hammer	-13801
▁exclud	-13802
▁Aw	-13803
▁incl	-13804
ija	-13805
▁satisfied	-13806
▁improving	-13807
▁societies	-13808
▁engineers	-13809
▁swallowed	-13810
▁steal	-13811
▁Isle	-13812
▁item	-13813
▁Cornwall	-13814
▁yesterday	-13815
▁manor	-13816
rox	-13817
▁conjunction	-13818
▁spine	-13819
▁Marcus	-13820
▁hull	-13821
▁conducting	-13822
aque	-13823
▁Roth	-13824
▁joins	-13825
▁speaks	-13826
selling	-13827
▁Et	-13828
▁Motors	-13829
▁relaxed	-13830
▁Sussex	-13831
eting	-13832
▁Bros	-13833
riages	-13834
GBT	-13835
hole	-13836
▁guided	-13837
▁transformation	-13838
▁favourite	-13839
ugu	-13840
800	-13841
▁examined	-13842
▁ridic	-13843
▁1961,	-13844
▁91	-13845
▁governing	-13846
adia	-13847
▁halfway	-13848
▁enlar	-13849
GC	-13850
iu	-13851
▁overhead	-13852
oye	-13853
iffe	-13854
▁transported	-13855
▁clergy	-13856
▁ESP	-13857
▁ordained	-13858
▁Buddh	-13859
adal	-13860
▁Look	-13861
▁Davies	-13862
quest	-13863
half	-13864
▁glow	-13865
▁declar	-13866
▁wal	-13867
esse	-13868
▁Gerald	-13869
▁collecting	-13870
▁cosm	-13871
quin	-13872
▁Watch	-13873
pring	-13874
GO	-13875
▁Advanced	-13876
▁pond	-13877
atorial	-13878
▁XI	-13879
othe	-13880
HC	-13881
▁authorized	-13882
▁trigger	-13883
▁Faith	-13884
▁Georgian	-13885
▁Nobel	-13886
▁Hus	-13887
▁Giovanni	-13888
December	-13889
▁notion	-13890
▁prostit	-13891
▁dubbed	-13892
itious	-13893
▁graphic	-13894
▁solely	-13895
▁inhabited	-13896
▁Lakes	-13897
▁Prison	-13898
apur	-13899
▁Rice	-13900
▁fuck	-13901
▁1947,	-13902
▁lectures	-13903
▁analog	-13904
▁fatal	-13905
▁findings	-13906
1987	-13907
▁reserved	-13908
▁drives	-13909
▁consent	-13910
▁utter	-13911
▁Louise	-13912
grand	-13913
▁Comedy	-13914
▁Colin	-13915
▁syndrome	-13916
▁ministers	-13917
▁centres	-13918
▁Gardens	-13919
▁irregular	-13920
▁Grande	-13921
▁cinem	-13922
▁Cardinals	-13923
▁ammunition	-13924
▁Amazon	-13925
oque	-13926
▁journals	-13927
▁Rab	-13928
▁garrison	-13929
▁fog	-13930
▁arbit	-13931
▁squeezed	-13932
▁drift	-13933
▁confron	-13934
ilion	-13935
▁Physics	-13936
▁ignore	-13937
▁matrix	-13938
▁Against	-13939
▁Hir	-13940
▁revol	-13941
inos	-13942
▁memoir	-13943
▁believing	-13944
▁NEAT	-13945
▁Zhang	-13946
▁Kra	-13947
ieu	-13948
▁Desert	-13949
zens	-13950
▁Ach	-13951
hematic	-13952
▁110	-13953
▁compositions	-13954
▁1876	-13955
▁Archives	-13956
▁depends	-13957
▁indoor	-13958
▁purse	-13959
▁Glou	-13960
▁Tunis	-13961
▁operators	-13962
▁Bosnia	-13963
math	-13964
▁rivals	-13965
▁buzz	-13966
▁excuse	-13967
▁farms	-13968
▁assured	-13969
stall	-13970
▁Nintendo	-13971
▁Ng	-13972
rative	-13973
▁Liv	-13974
▁84	-13975
▁compact	-13976
onnell	-13977
▁enable	-13978
▁79	-13979
▁hometown	-13980
▁spreading	-13981
▁apprent	-13982
▁cricketer	-13983
▁enlisted	-13984
terbury	-13985
este	-13986
▁rape	-13987
ellers	-13988
▁torture	-13989
DR	-13990
rowing	-13991
▁stability	-13992
OT	-13993
▁alph	-13994
▁Fro	-13995
▁farther	-13996
▁treas	-13997
▁descended	-13998
▁founders	-13999
▁Continental	-14000
▁seemingly	-14001
▁700	-14002
▁banking	-14003
▁comprising	-14004
▁Armstrong	-14005
▁chains	-14006
liga	-14007
likely	-14008
▁duration	-14009
▁virtually	-14010
ashire	-14011
text	-14012
▁obst	-14013
▁quantum	-14014
▁dealt	-14015
▁Cuban	-14016
▁corners	-14017
▁democracy	-14018
är	-14019
▁Herm	-14020
▁Kas	-14021
▁seated	-14022
▁sensation	-14023
▁Sons	-14024
▁Brussels	-14025
oyle	-14026
▁Blake	-14027
▁bark	-14028
▁Link	-14029
▁barrier	-14030
rish	-14031
▁upgraded	-14032
ischer	-14033
▁terrain	-14034
▁parked	-14035
▁Brooks	-14036
▁revolutionary	-14037
rene	-14038
▁Universe	-14039
▁audiences	-14040
1985	-14041
nesday	-14042
▁polar	-14043
▁eaten	-14044
▁aster	-14045
ducer	-14046
▁Allan	-14047
▁symbols	-14048
▁commanding	-14049
ocene	-14050
fold	-14051
▁Besides	-14052
▁oral	-14053
▁algorithm	-14054
▁nowhere	-14055
▁chapters	-14056
asting	-14057
▁LA	-14058
▁1878	-14059
IDS	-14060
▁orph	-14061
▁Ferdinand	-14062
1986	-14063
▁quoted	-14064
missions	-14065
▁consultant	-14066
▁Dynasty	-14067
▁proportion	-14068
nie	-14069
▁89	-14070
IL	-14071
▁Pon	-14072
▁neighbouring	-14073
sole	-14074
ingham	-14075
▁withdrawn	-14076
ensen	-14077
▁voyage	-14078
▁cole	-14079
izations	-14080
▁Mam	-14081
rica	-14082
▁retrie	-14083
▁decrease	-14084
OP	-14085
▁Triple	-14086
▁insects	-14087
▁proven	-14088
▁Exhibition	-14089
▁Pink	-14090
▁advised	-14091
▁Amendment	-14092
▁citizenship	-14093
▁Facebook	-14094
official	-14095
▁Newport	-14096
▁phenomenon	-14097
▁singers	-14098
▁drinks	-14099
▁160	-14100
▁trim	-14101
▁Bloom	-14102
▁Distinguished	-14103
▁Napoleon	-14104
warf	-14105
▁Proper	-14106
▁nationwide	-14107
▁necessarily	-14108
VA	-14109
▁Schw	-14110
▁dun	-14111
▁q	-14112
▁scout	-14113
▁allegations	-14114
▁Ellis	-14115
vironments	-14116
▁judgment	-14117
▁clerk	-14118
author	-14119
ylie	-14120
▁Kurt	-14121
▁washed	-14122
▁Rush	-14123
▁mineral	-14124
prises	-14125
▁NAT	-14126
▁seth	-14127
▁nominations	-14128
▁pistol	-14129
▁Competition	-14130
▁drops	-14131
▁backward	-14132
▁monarch	-14133
▁kisses	-14134
▁Cort	-14135
ymph	-14136
▁ov	-14137
▁outcome	-14138
▁prompted	-14139
▁Heights	-14140
▁curious	-14141
naissance	-14142
▁intim	-14143
dimensional	-14144
▁shrugged	-14145
elong	-14146
▁spat	-14147
▁pub	-14148
▁batting	-14149
▁Mix	-14150
▁della	-14151
▁Disco	-14152
esar	-14153
ursday	-14154
▁Cypr	-14155
▁collar	-14156
▁Mobile	-14157
▁unve	-14158
▁Rolling	-14159
▁Ster	-14160
▁Lancashire	-14161
▁sixty	-14162
books	-14163
▁Own	-14164
building	-14165
▁strings	-14166
▁specimens	-14167
▁millions	-14168
▁journalists	-14169
▁1871	-14170
▁Aur	-14171
▁threatening	-14172
eric	-14173
▁preliminary	-14174
sal	-14175
▁Presbyter	-14176
▁Principal	-14177
▁array	-14178
elin	-14179
atories	-14180
ishi	-14181
▁cared	-14182
▁varies	-14183
▁curved	-14184
▁discrimination	-14185
▁pulse	-14186
▁Stories	-14187
▁Woods	-14188
▁overcome	-14189
unning	-14190
▁authent	-14191
▁bitch	-14192
▁generate	-14193
▁Pir	-14194
▁ray	-14195
▁rally	-14196
▁acquire	-14197
▁referendum	-14198
▁Cha	-14199
cr	-14200
▁silently	-14201
▁testim	-14202
▁Amy	-14203
▁chocolate	-14204
▁immun	-14205
iaz	-14206
▁Tiger	-14207
ullah	-14208
etheless	-14209
▁CS	-14210
▁lungs	-14211
▁tune	-14212
▁staged	-14213
▁Aub	-14214
▁shorts	-14215
aky	-14216
▁CDP	-14217
▁strikes	-14218
ensing	-14219
▁Myster	-14220
▁jerked	-14221
▁Meg	-14222
produced	-14223
▁1918,	-14224
rugu	-14225
▁blew	-14226
screen	-14227
loe	-14228
▁Rabbi	-14229
▁curriculum	-14230
▁Cavalry	-14231
tlement	-14232
▁corporation	-14233
▁aggressive	-14234
uclear	-14235
▁chat	-14236
▁1950,	-14237
uras	-14238
onica	-14239
▁protagonist	-14240
▁avoided	-14241
▁volleyball	-14242
▁Apart	-14243
▁varying	-14244
bin	-14245
▁Vil	-14246
▁consequence	-14247
▁monitoring	-14248
▁Safety	-14249
▁handsome	-14250
▁CF	-14251
angered	-14252
▁Resources	-14253
aji	-14254
▁casting	-14255
songwriter	-14256
▁cher	-14257
▁disg	-14258
▁bits	-14259
illance	-14260
▁Leslie	-14261
▁sexy	-14262
▁torpedo	-14263
▁hydrogen	-14264
▁CR	-14265
▁fights	-14266
▁intermediate	-14267
non	-14268
▁runway	-14269
gs	-14270
▁Copenhagen	-14271
▁laps	-14272
uador	-14273
stock	-14274
▁alley	-14275
▁witnessed	-14276
▁rede	-14277
▁Pakistani	-14278
▁1879	-14279
walk	-14280
▁86	-14281
enched	-14282
▁philosopher	-14283
▁Heath	-14284
▁conflicts	-14285
uxiliary	-14286
ienne	-14287
▁Bark	-14288
▁Lords	-14289
▁learns	-14290
▁Tree	-14291
▁southeastern	-14292
▁sporting	-14293
▁rook	-14294
▁recall	-14295
▁disgu	-14296
nty	-14297
▁midnight	-14298
▁1867	-14299
girl	-14300
November	-14301
▁Nikol	-14302
January	-14303
ancers	-14304
▁94	-14305
▁AB	-14306
▁dar	-14307
▁reactions	-14308
awks	-14309
esa	-14310
▁Colonial	-14311
thouse	-14312
▁•	-14313
▁rubber	-14314
▁premier	-14315
▁1958,	-14316
▁offense	-14317
▁Hero	-14318
▁trailer	-14319
abella	-14320
▁Antarctic	-14321
▁vicinity	-14322
▁jim	-14323
▁Santiago	-14324
▁Hurricane	-14325
aneous	-14326
▁Advisory	-14327
▁bombs	-14328
▁centered	-14329
▁creator	-14330
▁magical	-14331
ainted	-14332
▁Julia	-14333
▁alumin	-14334
▁Gren	-14335
▁associations	-14336
▁Mead	-14337
▁Manit	-14338
oning	-14339
▁substance	-14340
▁investors	-14341
▁elaborate	-14342
▁Shadow	-14343
▁Powell	-14344
▁ale	-14345
▁headquartered	-14346
▁Month	-14347
anca	-14348
mare	-14349
▁bypass	-14350
▁nineteenth	-14351
▁romance	-14352
itory	-14353
▁sake	-14354
▁parad	-14355
▁Solomon	-14356
▁1877	-14357
▁Politics	-14358
▁Belarus	-14359
▁urge	-14360
ettes	-14361
icz	-14362
▁ERA	-14363
▁1956,	-14364
▁storyline	-14365
bian	-14366
iscal	-14367
▁50%	-14368
▁lighter	-14369
▁refuses	-14370
CAR	-14371
▁1875	-14372
▁nationally	-14373
▁Mold	-14374
▁wont	-14375
▁codes	-14376
▁goalkeeper	-14377
▁Emma	-14378
▁diocese	-14379
▁Account	-14380
▁aest	-14381
▁joke	-14382
rs	-14383
▁imprisonment	-14384
▁consideration	-14385
▁Hass	-14386
heng	-14387
▁Ahmad	-14388
▁Canterbury	-14389
▁jewel	-14390
▁Lodge	-14391
▁Ish	-14392
▁scan	-14393
oya	-14394
▁traced	-14395
iking	-14396
▁safely	-14397
▁legendary	-14398
▁reads	-14399
▁eag	-14400
▁Present	-14401
▁configuration	-14402
▁Popular	-14403
▁wis	-14404
▁motorcycle	-14405
▁Ana	-14406
rev	-14407
▁thighs	-14408
encia	-14409
▁joe	-14410
▁shade	-14411
▁Parad	-14412
▁ensemble	-14413
▁conferences	-14414
▁distinguish	-14415
▁Duncan	-14416
offs	-14417
▁secrets	-14418
▁chicken	-14419
▁Andrews	-14420
apest	-14421
▁<	-14422
▁Frankfurt	-14423
chester	-14424
▁Agre	-14425
▁buying	-14426
▁Fifth	-14427
rio	-14428
▁Ein	-14429
▁Glass	-14430
erves	-14431
▁nerve	-14432
▁scope	-14433
achers	-14434
ancement	-14435
▁Without	-14436
▁Hopkins	-14437
▁cens	-14438
▁Benedict	-14439
▁lightning	-14440
oping	-14441
▁boarding	-14442
▁militia	-14443
▁presum	-14444
▁Publications	-14445
Go	-14446
▁surfaces	-14447
berto	-14448
1983	-14449
▁deriv	-14450
▁ranch	-14451
▁councill	-14452
▁Emily	-14453
▁Hull	-14454
▁1872	-14455
▁Metal	-14456
▁ling	-14457
▁activists	-14458
tz	-14459
▁Barr	-14460
ém	-14461
▁frog	-14462
▁gorge	-14463
▁routine	-14464
▁Sang	-14465
▁estates	-14466
▁demanding	-14467
▁Eugene	-14468
▁Episcopal	-14469
▁barr	-14470
▁catching	-14471
▁solve	-14472
edo	-14473
south	-14474
▁Idaho	-14475
▁riders	-14476
▁wickets	-14477
▁tackles	-14478
iblical	-14479
▁henry	-14480
ento	-14481
▁define	-14482
kees	-14483
▁sacrifice	-14484
▁Merit	-14485
▁SE	-14486
▁onwards	-14487
▁Harm	-14488
▁observations	-14489
plane	-14490
hero	-14491
▁heal	-14492
▁swear	-14493
alis	-14494
▁homosexual	-14495
▁toile	-14496
▁libraries	-14497
lies	-14498
▁destroying	-14499
▁specified	-14500
▁developer	-14501
▁trucks	-14502
▁1959,	-14503
▁Veter	-14504
1984	-14505
▁Albanian	-14506
▁denomin	-14507
▁LGBT	-14508
▁discipline	-14509
ardi	-14510
▁Claud	-14511
▁Uganda	-14512
▁searched	-14513
▁Evangel	-14514
▁ripped	-14515
▁Intro	-14516
ryn	-14517
▁dense	-14518
▁overwhelming	-14519
▁altar	-14520
▁ah	-14521
▁Train	-14522
▁Cu	-14523
▁Lok	-14524
▁airfield	-14525
▁firms	-14526
▁Czechosl	-14527
icus	-14528
DI	-14529
▁occurring	-14530
▁paras	-14531
▁spirits	-14532
oan	-14533
▁compensation	-14534
▁unemploy	-14535
▁deposits	-14536
▁toxic	-14537
▁caf	-14538
▁Saw	-14539
▁rotation	-14540
▁elderly	-14541
▁thomas	-14542
▁interpreted	-14543
▁tucked	-14544
imity	-14545
▁fossil	-14546
▁draws	-14547
▁Geneva	-14548
manuel	-14549
▁rescued	-14550
▁bapt	-14551
▁strain	-14552
▁northeastern	-14553
▁83	-14554
▁logan	-14555
▁stub	-14556
▁rises	-14557
athi	-14558
▁Cann	-14559
▁BCE	-14560
▁algebra	-14561
▁Ecuador	-14562
ennium	-14563
▁hurricane	-14564
▁stepping	-14565
there	-14566
▁Richardson	-14567
▁Constantin	-14568
▁Dj	-14569
▁Publishers	-14570
▁pled	-14571
vie	-14572
▁percussion	-14573
▁Parks	-14574
▁predict	-14575
▁uncomfortable	-14576
▁Simpson	-14577
role	-14578
▁ibn	-14579
▁Cauc	-14580
▁Ply	-14581
▁spo	-14582
▁consec	-14583
▁precip	-14584
▁volt	-14585
▁missionary	-14586
▁Heaven	-14587
▁Planning	-14588
▁Bryan	-14589
▁Dob	-14590
▁Rachel	-14591
1960	-14592
▁1873	-14593
orian	-14594
▁carriage	-14595
eyed	-14596
▁bust	-14597
▁mock	-14598
▁considerably	-14599
▁Kingston	-14600
atem	-14601
▁1830	-14602
▁Fernando	-14603
▁Plate	-14604
▁terrorist	-14605
▁encl	-14606
▁strang	-14607
▁Testament	-14608
itative	-14609
olan	-14610
▁enjoying	-14611
▁pedest	-14612
▁Campus	-14613
agic	-14614
▁rebel	-14615
vae	-14616
▁pronounced	-14617
both	-14618
▁shaft	-14619
olith	-14620
color	-14621
▁radi	-14622
▁cruel	-14623
▁Porter	-14624
▁hungry	-14625
▁Salvador	-14626
▁Chase	-14627
▁Excell	-14628
▁performers	-14629
▁beds	-14630
▁fever	-14631
▁facts	-14632
▁registration	-14633
▁1868	-14634
▁FBI	-14635
▁consul	-14636
▁sequences	-14637
▁Transit	-14638
yon	-14639
OL	-14640
▁territorial	-14641
▁Anat	-14642
▁sucked	-14643
▁nan	-14644
▁Classical	-14645
atics	-14646
▁gesture	-14647
▁aerial	-14648
▁advisor	-14649
▁Poetry	-14650
Members	-14651
▁openly	-14652
▁Guards	-14653
▁catalog	-14654
▁vector	-14655
▁bund	-14656
▁fare	-14657
▁Hod	-14658
19,	-14659
▁Guang	-14660
▁Rodrig	-14661
▁capabilities	-14662
▁Das	-14663
▁Serie	-14664
▁custody	-14665
▁verte	-14666
▁pipe	-14667
▁Malta	-14668
▁diamond	-14669
▁infer	-14670
▁Tat	-14671
▁robot	-14672
▁Rovers	-14673
▁marking	-14674
▁stern	-14675
rams	-14676
▁fel	-14677
uchy	-14678
amas	-14679
rag	-14680
▁hollow	-14681
▁Half	-14682
▁incidents	-14683
▁Cyprus	-14684
▁Wildlife	-14685
▁democratic	-14686
▁1957,	-14687
unda	-14688
anton	-14689
arin	-14690
▁imposed	-14691
press	-14692
▁mothers	-14693
abi	-14694
▁Formation	-14695
▁1874	-14696
▁Crist	-14697
acey	-14698
▁cliff	-14699
▁Estate	-14700
▁Gibson	-14701
oriented	-14702
▁grinned	-14703
icles	-14704
▁Trin	-14705
▁mathematical	-14706
▁marched	-14707
▁lesser	-14708
▁condemned	-14709
▁IBM	-14710
▁cheese	-14711
▁beings	-14712
▁Clif	-14713
▁judicial	-14714
chewan	-14715
▁Tampa	-14716
IR	-14717
▁urged	-14718
▁100,000	-14719
▁reflection	-14720
▁poorly	-14721
▁integral	-14722
▁Picture	-14723
▁rainfall	-14724
▁Cardiff	-14725
▁neighbourhood	-14726
'"	-14727
onal	-14728
There	-14729
▁ze	-14730
▁uncon	-14731
▁haun	-14732
▁Dominican	-14733
human	-14734
ogg	-14735
▁spray	-14736
lando	-14737
▁Urugu	-14738
▁Complex	-14739
▁GP	-14740
▁colours	-14741
▁predicted	-14742
▁Mine	-14743
▁Surrey	-14744
▁agrees	-14745
lez	-14746
cus	-14747
▁Haven	-14748
▁1949,	-14749
imental	-14750
▁Nas	-14751
▁finale	-14752
Com	-14753
▁shes	-14754
▁Kazakh	-14755
opic	-14756
▁doctorate	-14757
▁trump	-14758
▁abbre	-14759
▁publish	-14760
▁Chin	-14761
eri	-14762
▁ate	-14763
apa	-14764
▁variants	-14765
▁painful	-14766
▁manifest	-14767
▁spur	-14768
▁exploration	-14769
▁Gö	-14770
▁Being	-14771
▁disagre	-14772
▁tv	-14773
▁Caroline	-14774
▁entries	-14775
stop	-14776
▁courty	-14777
▁assassination	-14778
amy	-14779
▁Associate	-14780
▁fears	-14781
▁rebounds	-14782
ologically	-14783
▁biology	-14784
▁pursuit	-14785
▁mans	-14786
▁supporter	-14787
▁gamb	-14788
daughter	-14789
▁secular	-14790
uchi	-14791
bad	-14792
▁Cut	-14793
▁Wool	-14794
▁Jal	-14795
▁revel	-14796
▁claire	-14797
gary	-14798
▁Contest	-14799
▁fierce	-14800
▁Luxemb	-14801
▁Ö	-14802
▁Bears	-14803
esters	-14804
▁François	-14805
▁vegetation	-14806
▁Writers	-14807
▁Sent	-14808
▁True	-14809
▁exhausted	-14810
artz	-14811
▁secretly	-14812
si	-14813
▁Lucy	-14814
iott	-14815
▁environments	-14816
▁dynamic	-14817
▁packed	-14818
▁settling	-14819
nai	-14820
jud	-14821
astropod	-14822
omatic	-14823
hey	-14824
▁Angels	-14825
▁adequ	-14826
▁pm	-14827
▁southwestern	-14828
▁probability	-14829
▁hosting	-14830
▁gig	-14831
ubb	-14832
▁maneu	-14833
▁Karn	-14834
▁adoption	-14835
▁fees	-14836
▁Screen	-14837
lette	-14838
▁elbow	-14839
▁legacy	-14840
▁chim	-14841
▁achievements	-14842
▁VIII	-14843
▁peaceful	-14844
▁Bea	-14845
▁repeat	-14846
▁Chelsea	-14847
▁closet	-14848
▁expelled	-14849
▁simon	-14850
▁sunlight	-14851
▁Leop	-14852
uta	-14853
▁1866	-14854
▁Henderson	-14855
▁governed	-14856
▁intact	-14857
aye	-14858
▁metab	-14859
▁HIV	-14860
▁Parliamentary	-14861
dis	-14862
▁mature	-14863
▁hamlet	-14864
▁posthum	-14865
▁~	-14866
▁Bil	-14867
▁Palm	-14868
▁Eve	-14869
▁Store	-14870
▁rocky	-14871
▁halt	-14872
▁Located	-14873
▁Double	-14874
▁Aircraft	-14875
▁abruptly	-14876
▁cleaning	-14877
▁customs	-14878
▁competitors	-14879
▁opposing	-14880
▁Natal	-14881
▁Aboriginal	-14882
▁controlling	-14883
▁BA	-14884
▁lifestyle	-14885
arians	-14886
GS	-14887
▁Banks	-14888
▁dread	-14889
▁lecturer	-14890
alties	-14891
rium	-14892
▁hint	-14893
onomic	-14894
▁colored	-14895
▁Core	-14896
▁scales	-14897
▁tribal	-14898
▁boost	-14899
▁stab	-14900
ych	-14901
1979	-14902
▁migration	-14903
ei	-14904
▁tense	-14905
rice	-14906
onne	-14907
▁sculptor	-14908
stanbul	-14909
landers	-14910
▁RA	-14911
▁upstairs	-14912
▁flashed	-14913
▁sulf	-14914
▁Morocco	-14915
▁compounds	-14916
▁delic	-14917
▁Speaker	-14918
alymp	-14919
andro	-14920
▁lob	-14921
▁Transl	-14922
▁orch	-14923
▁bunch	-14924
las	-14925
▁slavery	-14926
▁imper	-14927
▁Basil	-14928
▁proximity	-14929
▁interactions	-14930
▁cluster	-14931
mal	-14932
▁sends	-14933
▁Lithuania	-14934
▁murders	-14935
▁synonym	-14936
▁Saskatchewan	-14937
▁chess	-14938
▁kilometres	-14939
cu	-14940
▁Fiction	-14941
▁journalism	-14942
▁york	-14943
▁Bradford	-14944
orde	-14945
▁Bailey	-14946
lace	-14947
▁heated	-14948
▁pel	-14949
▁Zimb	-14950
▁dors	-14951
iots	-14952
▁Aven	-14953
▁planes	-14954
attalions	-14955
▁Chancellor	-14956
erals	-14957
▁1955,	-14958
▁Por	-14959
▁Chess	-14960
▁Hindi	-14961
▁Dipl	-14962
actions	-14963
usters	-14964
▁Worth	-14965
▁ignoring	-14966
▁luke	-14967
ylum	-14968
▁Corp	-14969
gard	-14970
▁supern	-14971
▁happiness	-14972
▁Ming	-14973
rift	-14974
▁playwright	-14975
▁unlikely	-14976
▁Diet	-14977
▁spar	-14978
▁ari	-14979
▁Va	-14980
cap	-14981
1982	-14982
▁USSR	-14983
▁reconstruction	-14984
▁Alpha	-14985
▁amph	-14986
ighthouse	-14987
▁lineup	-14988
acker	-14989
Cent	-14990
▁weakness	-14991
▁unh	-14992
▁Shield	-14993
▁ug	-14994
cock	-14995
▁bassist	-14996
▁Boeing	-14997
▁reader	-14998
▁activated	-14999
▁remarkable	-15000
▁theoretical	-15001
iston	-15002
▁triumph	-15003
1/	-15004
▁suite	-15005
▁varieties	-15006
▁Various	-15007
▁accordance	-15008
▁Kw	-15009
verage	-15010
▁Bradley	-15011
▁Shop	-15012
▁Change	-15013
▁theology	-15014
▁luxury	-15015
▁Index	-15016
amation	-15017
▁interviewed	-15018
▁1848	-15019
▁chlor	-15020
▁Self	-15021
▁interven	-15022
▁manufacture	-15023
▁Armenia	-15024
▁Globe	-15025
▁Interior	-15026
▁Miles	-15027
▁constituencies	-15028
▁airing	-15029
itches	-15030
▁hover	-15031
▁awake	-15032
amine	-15033
rina	-15034
HE	-15035
▁ESPN	-15036
▁measuring	-15037
▁pregnancy	-15038
NS	-15039
atsu	-15040
▁serge	-15041
▁affection	-15042
▁layout	-15043
Co	-15044
▁Moreover	-15045
▁adds	-15046
▁Curtis	-15047
▁Brid	-15048
storm	-15049
▁Tyler	-15050
▁Kumar	-15051
▁Glenn	-15052
▁Relig	-15053
▁carpet	-15054
▁Headquarters	-15055
▁NATO	-15056
▁rendered	-15057
▁lane	-15058
▁130	-15059
▁sometime	-15060
▁Presbyterian	-15061
▁Mesa	-15062
▁naming	-15063
▁currency	-15064
▁Ek	-15065
kinson	-15066
▁epit	-15067
▁crypt	-15068
linary	-15069
▁unions	-15070
▁drif	-15071
▁lease	-15072
▁Lutheran	-15073
▁Tow	-15074
iman	-15075
▁listing	-15076
▁anten	-15077
▁Trent	-15078
arette	-15079
▁twentieth	-15080
▁separately	-15081
idan	-15082
▁horizontal	-15083
▁Belfast	-15084
▁bonds	-15085
▁slope	-15086
▁rejoin	-15087
▁flame	-15088
▁laser	-15089
hurst	-15090
▁Sof	-15091
▁cere	-15092
uesday	-15093
▁ow	-15094
abwe	-15095
▁Basin	-15096
▁realizing	-15097
uum	-15098
cal	-15099
they	-15100
▁restr	-15101
▁administrator	-15102
▁explaining	-15103
▁chances	-15104
▁veins	-15105
▁boxing	-15106
▁seventeen	-15107
▁bind	-15108
cor	-15109
▁175	-15110
▁vest	-15111
▁doctrine	-15112
▁Rib	-15113
lied	-15114
▁immort	-15115
Ab	-15116
▁welcom	-15117
▁jamie	-15118
▁Dow	-15119
▁hav	-15120
isible	-15121
▁healing	-15122
▁Mis	-15123
▁portraits	-15124
▁workshops	-15125
rea	-15126
edar	-15127
▁scram	-15128
▁ally	-15129
[...]
